unsigned char model_5_quantized_tflite[] = {
  0x1c, 0x00, 0x00, 0x00, 0x54, 0x46, 0x4c, 0x33, 0x14, 0x00, 0x20, 0x00,
  0x1c, 0x00, 0x18, 0x00, 0x14, 0x00, 0x10, 0x00, 0x0c, 0x00, 0x00, 0x00,
  0x08, 0x00, 0x04, 0x00, 0x14, 0x00, 0x00, 0x00, 0x1c, 0x00, 0x00, 0x00,
  0x84, 0x00, 0x00, 0x00, 0xdc, 0x00, 0x00, 0x00, 0xb8, 0x05, 0x00, 0x00,
  0xc8, 0x05, 0x00, 0x00, 0xfc, 0x09, 0x00, 0x00, 0x03, 0x00, 0x00, 0x00,
  0x01, 0x00, 0x00, 0x00, 0x04, 0x00, 0x00, 0x00, 0xfe, 0xf9, 0xff, 0xff,
  0x0c, 0x00, 0x00, 0x00, 0x1c, 0x00, 0x00, 0x00, 0x38, 0x00, 0x00, 0x00,
  0x0f, 0x00, 0x00, 0x00, 0x73, 0x65, 0x72, 0x76, 0x69, 0x6e, 0x67, 0x5f,
  0x64, 0x65, 0x66, 0x61, 0x75, 0x6c, 0x74, 0x00, 0x01, 0x00, 0x00, 0x00,
  0x04, 0x00, 0x00, 0x00, 0x98, 0xff, 0xff, 0xff, 0x07, 0x00, 0x00, 0x00,
  0x04, 0x00, 0x00, 0x00, 0x07, 0x00, 0x00, 0x00, 0x64, 0x65, 0x6e, 0x73,
  0x65, 0x5f, 0x31, 0x00, 0x01, 0x00, 0x00, 0x00, 0x04, 0x00, 0x00, 0x00,
  0xca, 0xfa, 0xff, 0xff, 0x04, 0x00, 0x00, 0x00, 0x0b, 0x00, 0x00, 0x00,
  0x64, 0x65, 0x6e, 0x73, 0x65, 0x5f, 0x69, 0x6e, 0x70, 0x75, 0x74, 0x00,
  0x02, 0x00, 0x00, 0x00, 0x34, 0x00, 0x00, 0x00, 0x04, 0x00, 0x00, 0x00,
  0xdc, 0xff, 0xff, 0xff, 0x0a, 0x00, 0x00, 0x00, 0x04, 0x00, 0x00, 0x00,
  0x13, 0x00, 0x00, 0x00, 0x43, 0x4f, 0x4e, 0x56, 0x45, 0x52, 0x53, 0x49,
  0x4f, 0x4e, 0x5f, 0x4d, 0x45, 0x54, 0x41, 0x44, 0x41, 0x54, 0x41, 0x00,
  0x08, 0x00, 0x0c, 0x00, 0x08, 0x00, 0x04, 0x00, 0x08, 0x00, 0x00, 0x00,
  0x09, 0x00, 0x00, 0x00, 0x04, 0x00, 0x00, 0x00, 0x13, 0x00, 0x00, 0x00,
  0x6d, 0x69, 0x6e, 0x5f, 0x72, 0x75, 0x6e, 0x74, 0x69, 0x6d, 0x65, 0x5f,
  0x76, 0x65, 0x72, 0x73, 0x69, 0x6f, 0x6e, 0x00, 0x0b, 0x00, 0x00, 0x00,
  0xd8, 0x04, 0x00, 0x00, 0xd0, 0x04, 0x00, 0x00, 0xbc, 0x04, 0x00, 0x00,
  0x84, 0x04, 0x00, 0x00, 0xd4, 0x00, 0x00, 0x00, 0xa4, 0x00, 0x00, 0x00,
  0x9c, 0x00, 0x00, 0x00, 0x94, 0x00, 0x00, 0x00, 0x8c, 0x00, 0x00, 0x00,
  0x6c, 0x00, 0x00, 0x00, 0x04, 0x00, 0x00, 0x00, 0x6e, 0xfb, 0xff, 0xff,
  0x04, 0x00, 0x00, 0x00, 0x58, 0x00, 0x00, 0x00, 0x0c, 0x00, 0x00, 0x00,
  0x08, 0x00, 0x0e, 0x00, 0x08, 0x00, 0x04, 0x00, 0x08, 0x00, 0x00, 0x00,
  0x10, 0x00, 0x00, 0x00, 0x28, 0x00, 0x00, 0x00, 0x00, 0x00, 0x06, 0x00,
  0x08, 0x00, 0x04, 0x00, 0x06, 0x00, 0x00, 0x00, 0x04, 0x00, 0x00, 0x00,
  0x01, 0x00, 0x00, 0x00, 0xea, 0x03, 0x00, 0x00, 0x00, 0x00, 0x0a, 0x00,
  0x10, 0x00, 0x0c, 0x00, 0x08, 0x00, 0x04, 0x00, 0x0a, 0x00, 0x00, 0x00,
  0x02, 0x00, 0x00, 0x00, 0x02, 0x00, 0x00, 0x00, 0x04, 0x00, 0x00, 0x00,
  0x06, 0x00, 0x00, 0x00, 0x32, 0x2e, 0x31, 0x34, 0x2e, 0x30, 0x00, 0x00,
  0xd2, 0xfb, 0xff, 0xff, 0x04, 0x00, 0x00, 0x00, 0x10, 0x00, 0x00, 0x00,
  0x31, 0x2e, 0x31, 0x34, 0x2e, 0x30, 0x00, 0x00, 0x00, 0x00, 0x00, 0x00,
  0x00, 0x00, 0x00, 0x00, 0xbc, 0xf7, 0xff, 0xff, 0xc0, 0xf7, 0xff, 0xff,
  0xc4, 0xf7, 0xff, 0xff, 0xfa, 0xfb, 0xff, 0xff, 0x04, 0x00, 0x00, 0x00,
  0x20, 0x00, 0x00, 0x00, 0xcf, 0xeb, 0xbf, 0xbf, 0x97, 0x9d, 0xff, 0xbf,
  0xa4, 0x7c, 0xd5, 0xbf, 0xba, 0x12, 0xaa, 0x3f, 0x81, 0x1a, 0xe3, 0xbf,
  0xf2, 0x48, 0x1f, 0xc0, 0x6d, 0xac, 0xf2, 0x3f, 0x15, 0xe4, 0x08, 0x40,
  0x26, 0xfc, 0xff, 0xff, 0x04, 0x00, 0x00, 0x00, 0xa0, 0x03, 0x00, 0x00,
  0xbf, 0xe1, 0xa8, 0xbd, 0x32, 0x29, 0x56, 0x3e, 0x4b, 0x73, 0xbc, 0xbe,
  0xc3, 0x79, 0x41, 0xbf, 0x84, 0x9e, 0xae, 0xbd, 0x16, 0xe0, 0x82, 0x3d,
  0x3d, 0x1f, 0xbf, 0x3e, 0x69, 0x87, 0x0d, 0x3f, 0xe7, 0x1a, 0x8f, 0xbe,
  0xdd, 0xbc, 0x46, 0xbe, 0x72, 0x56, 0x28, 0xbf, 0x51, 0x4d, 0x47, 0xbe,
  0x2c, 0x3f, 0x06, 0x3d, 0x51, 0xc4, 0xdc, 0x3d, 0x2c, 0xe6, 0x8c, 0x3e,
  0xd5, 0x9d, 0x1e, 0xbf, 0x81, 0x25, 0x6a, 0xbe, 0x25, 0x41, 0x3d, 0xbf,
  0x08, 0xd3, 0x1a, 0xbf, 0x7f, 0x2f, 0x09, 0x3f, 0xc0, 0xfb, 0x18, 0xbf,
  0xc3, 0x1b, 0x31, 0xbf, 0x1a, 0xa0, 0x70, 0xbf, 0xf2, 0xc3, 0x97, 0xbf,
  0x5e, 0x61, 0xd5, 0xbe, 0xe6, 0x19, 0x01, 0xbf, 0xd2, 0x36, 0x04, 0x3e,
  0x13, 0x64, 0x4a, 0xbe, 0x7d, 0xa2, 0xd7, 0xbc, 0x79, 0x15, 0x2a, 0x3e,
  0x8d, 0x88, 0x31, 0x3e, 0xc2, 0xd2, 0x91, 0xbe, 0x0e, 0xb8, 0xa4, 0x3f,
  0x14, 0xa0, 0xca, 0x3e, 0x6c, 0xe5, 0x4e, 0xbe, 0x3f, 0x2e, 0x8e, 0x3b,
  0x1f, 0x2c, 0x03, 0xbf, 0xe1, 0x53, 0x9a, 0xbe, 0xa5, 0xa0, 0x66, 0x3d,
  0x0e, 0x09, 0x6d, 0xbf, 0x57, 0x2d, 0x10, 0x3f, 0x9c, 0xc3, 0x08, 0xbe,
  0x8a, 0xdb, 0xdc, 0xbd, 0x90, 0x85, 0xe4, 0xbd, 0xbb, 0x07, 0x29, 0x3f,
  0x04, 0xf0, 0xf2, 0x3e, 0x22, 0xd3, 0x94, 0xbe, 0x27, 0x53, 0xb6, 0xbe,
  0xab, 0x4a, 0xd6, 0xbe, 0x28, 0xf4, 0x74, 0xbf, 0xd9, 0xa0, 0x1b, 0xbf,
  0xfa, 0xf9, 0x8d, 0xbf, 0x1c, 0x09, 0x56, 0xbf, 0xf4, 0xf4, 0x4b, 0xbe,
  0x42, 0x4d, 0x03, 0xbf, 0xbd, 0x4f, 0xf5, 0xbd, 0x8c, 0x66, 0x66, 0xbe,
  0x2d, 0xf5, 0x86, 0xbe, 0x23, 0xb7, 0xaf, 0xbe, 0x94, 0xd2, 0x2b, 0x3f,
  0xbb, 0x7a, 0xee, 0xbe, 0x8d, 0x63, 0xbf, 0xbe, 0x72, 0x35, 0x6a, 0x3f,
  0xed, 0x16, 0x3e, 0x3f, 0xa8, 0x25, 0x55, 0xbe, 0x5c, 0x1b, 0x8b, 0xbe,
  0x2d, 0x99, 0xdf, 0x3e, 0x7e, 0xc3, 0x27, 0xbe, 0x58, 0x20, 0x97, 0xbe,
  0xb6, 0xe1, 0x5f, 0xbb, 0x78, 0xcf, 0xca, 0xbd, 0xeb, 0x06, 0x36, 0xbf,
  0x1b, 0x85, 0x43, 0xbf, 0x91, 0xea, 0x6b, 0x3e, 0xc2, 0x3c, 0xff, 0x3e,
  0x36, 0xe3, 0x29, 0xbe, 0xe5, 0xc0, 0xf4, 0xbe, 0x7f, 0xa9, 0xfa, 0xbe,
  0x33, 0x98, 0x22, 0xbe, 0x04, 0x39, 0x39, 0x3b, 0x0b, 0xfd, 0xf7, 0x3e,
  0x63, 0x00, 0x88, 0x3e, 0xd2, 0xa5, 0xad, 0xbe, 0x03, 0x2d, 0xf5, 0xbe,
  0xa2, 0xfe, 0xb9, 0xbe, 0x43, 0xa0, 0x91, 0xbe, 0x29, 0x21, 0xa6, 0x3e,
  0x9f, 0x57, 0x06, 0x3f, 0xe5, 0xcc, 0x01, 0xc0, 0xb7, 0x1c, 0xd4, 0x3e,
  0x94, 0x13, 0x8b, 0x3e, 0x51, 0x01, 0x5c, 0xbd, 0x5b, 0x0d, 0x17, 0x3e,
  0x20, 0x35, 0xc6, 0x3e, 0x4a, 0xaf, 0x76, 0xbd, 0xdf, 0x52, 0x6c, 0xbe,
  0xde, 0x03, 0x9e, 0xbe, 0xa5, 0x8b, 0xd6, 0x3e, 0x62, 0x58, 0x99, 0x3e,
  0xc4, 0x37, 0x1f, 0xbc, 0xa9, 0x70, 0x27, 0x3d, 0x01, 0x18, 0x21, 0x3e,
  0xdc, 0xb8, 0x96, 0xbe, 0x5a, 0x1a, 0x44, 0x3e, 0x9a, 0x5f, 0x21, 0x3f,
  0x19, 0x47, 0xec, 0x3e, 0xef, 0x13, 0x0d, 0xbf, 0xd2, 0xff, 0x01, 0x3e,
  0x83, 0x11, 0xc5, 0x3d, 0x70, 0x1b, 0x96, 0x3d, 0xbb, 0xaa, 0xbc, 0x3e,
  0x68, 0x28, 0x6d, 0xbd, 0xa5, 0x84, 0x99, 0xbe, 0x7f, 0xd7, 0xa4, 0xbd,
  0x70, 0x7c, 0xc2, 0xbe, 0xd7, 0x44, 0x80, 0xbe, 0xc7, 0xec, 0xf9, 0xbe,
  0xd8, 0x11, 0x8c, 0x3e, 0xc9, 0x3e, 0x9f, 0xbd, 0xb4, 0x6e, 0x56, 0xbd,
  0xfa, 0x96, 0xfe, 0x3d, 0xba, 0x35, 0x87, 0x3f, 0x1d, 0x8c, 0x8b, 0x3f,
  0x14, 0x85, 0x64, 0xbe, 0x07, 0x21, 0xd2, 0x3e, 0x8f, 0x79, 0x3c, 0x3f,
  0xa8, 0x75, 0x27, 0xbf, 0x2e, 0xfa, 0x05, 0x3f, 0xa7, 0x9d, 0xcd, 0x3d,
  0xb8, 0xe1, 0x90, 0x3d, 0x98, 0x70, 0xb4, 0x3f, 0xb5, 0x63, 0x22, 0xbf,
  0x45, 0x47, 0x80, 0xbf, 0x06, 0x21, 0xc6, 0xbf, 0x76, 0x6c, 0x86, 0xbf,
  0x78, 0x52, 0x47, 0xbd, 0xa3, 0x95, 0x8b, 0xbe, 0x20, 0xab, 0xe0, 0x3d,
  0xce, 0x2d, 0x70, 0xbe, 0x8f, 0x38, 0x05, 0xbe, 0xfb, 0x36, 0x07, 0xbf,
  0xe0, 0x43, 0x69, 0xbf, 0xce, 0x68, 0xe9, 0xbe, 0xd9, 0xdf, 0x02, 0x3e,
  0xb2, 0xbe, 0xc4, 0xbe, 0xea, 0xaa, 0x9e, 0xbd, 0x3e, 0x2a, 0x6d, 0x3e,
  0x96, 0xb8, 0x67, 0xbe, 0x24, 0x7c, 0x4a, 0x3e, 0x39, 0xe1, 0x13, 0x3f,
  0xe8, 0x19, 0x9e, 0x3f, 0x8f, 0x68, 0xe7, 0x3e, 0xb5, 0x56, 0xed, 0x3e,
  0x2c, 0x4e, 0xb9, 0x3e, 0x7d, 0xa9, 0x8b, 0xbe, 0xde, 0x18, 0xd2, 0xbe,
  0xa0, 0x1c, 0x36, 0xbe, 0x29, 0x60, 0xb9, 0x3d, 0xc1, 0x28, 0x12, 0x3d,
  0x51, 0xa9, 0xa5, 0x3e, 0xac, 0x29, 0x33, 0xbe, 0x9a, 0x5d, 0x83, 0x3d,
  0xaf, 0x16, 0x9b, 0xbf, 0xab, 0xe1, 0x96, 0xbf, 0x72, 0x4e, 0x7d, 0xbe,
  0x14, 0x7f, 0x87, 0xbe, 0xa3, 0x9c, 0xc7, 0x3d, 0x03, 0x2f, 0xa3, 0x3c,
  0x36, 0xfd, 0xbf, 0xbd, 0x19, 0xa0, 0xdd, 0x3e, 0xd6, 0xad, 0xc2, 0x3e,
  0x11, 0x65, 0xf0, 0xbd, 0xa7, 0x7f, 0x4c, 0x3e, 0x5e, 0x4e, 0x30, 0x3e,
  0x04, 0x0b, 0xab, 0x3e, 0x1b, 0x5a, 0x9a, 0xbf, 0xea, 0x5b, 0x7c, 0xbe,
  0xe8, 0x58, 0xa4, 0x3f, 0xb3, 0x9b, 0x95, 0xbc, 0x7e, 0x6f, 0x85, 0x3e,
  0xcb, 0x95, 0xc3, 0x3f, 0xd7, 0x6f, 0x2f, 0xbe, 0xbc, 0x0f, 0x97, 0xbe,
  0x28, 0xf2, 0xdf, 0x3e, 0x70, 0x9a, 0x07, 0xbe, 0xbe, 0x68, 0x7e, 0x3e,
  0x0d, 0x3c, 0xb9, 0x3e, 0xf0, 0xc6, 0xe0, 0xbe, 0xc1, 0x1e, 0x5e, 0x3e,
  0x3f, 0x22, 0xbc, 0x3e, 0x6a, 0xe9, 0xa1, 0x3d, 0x1e, 0x35, 0x27, 0x3e,
  0xf5, 0x1e, 0x33, 0x3f, 0x3c, 0xb6, 0x18, 0x3e, 0x28, 0xd6, 0x73, 0xba,
  0xef, 0x72, 0x13, 0x3e, 0xfb, 0xb7, 0xa7, 0xbe, 0x5c, 0x8a, 0x56, 0x3e,
  0xcf, 0xb9, 0xa7, 0xbe, 0xb9, 0x1d, 0x52, 0x3e, 0xa0, 0x70, 0x1a, 0xbd,
  0x5c, 0x9b, 0xf0, 0xbd, 0xe2, 0x71, 0xd6, 0xbd, 0xb3, 0x97, 0xd2, 0x3e,
  0x55, 0xb6, 0xe2, 0xbf, 0xa0, 0x40, 0xaf, 0xbd, 0xfc, 0x0d, 0xf5, 0xbe,
  0x91, 0xbb, 0xd3, 0x3e, 0x82, 0xd3, 0x2d, 0xbd, 0x0a, 0xd4, 0xa6, 0x3e,
  0x6c, 0x4a, 0xaf, 0x3e, 0x08, 0xfc, 0xbf, 0x3d, 0xd5, 0x2a, 0xfb, 0xbe,
  0xa2, 0x21, 0xf0, 0x3e, 0x9a, 0x19, 0xc0, 0xbd, 0x5f, 0x92, 0x22, 0xbf,
  0x0b, 0x19, 0x5a, 0xbf, 0x33, 0x40, 0xa6, 0xbe, 0x46, 0xee, 0xb0, 0xbe,
  0x5a, 0x55, 0xca, 0xbd, 0x26, 0x6a, 0xb6, 0x3f, 0xbf, 0x00, 0x29, 0x3f,
  0x59, 0x74, 0xac, 0x3c, 0xa3, 0x85, 0xbc, 0xbe, 0x32, 0x02, 0xc1, 0xbc,
  0x44, 0x62, 0x3e, 0x3f, 0x19, 0x7c, 0xd2, 0x3e, 0xf1, 0x2d, 0x94, 0x3f,
  0x2d, 0x1c, 0x91, 0xbf, 0xc8, 0xc1, 0x34, 0xbf, 0x90, 0xbd, 0x0c, 0x3e,
  0x62, 0x18, 0x79, 0xbe, 0xd2, 0xff, 0xff, 0xff, 0x04, 0x00, 0x00, 0x00,
  0x20, 0x00, 0x00, 0x00, 0xbe, 0xdb, 0xcb, 0x3e, 0x6c, 0xde, 0x50, 0x3f,
  0x5a, 0x2b, 0xa9, 0x3f, 0xfc, 0x8e, 0xf9, 0xbd, 0x68, 0x3b, 0x92, 0x3e,
  0xde, 0xd4, 0x64, 0x3f, 0xdf, 0xdc, 0x4e, 0xbf, 0x08, 0x45, 0xde, 0x3e,
  0x00, 0x00, 0x06, 0x00, 0x08, 0x00, 0x04, 0x00, 0x06, 0x00, 0x00, 0x00,
  0x04, 0x00, 0x00, 0x00, 0x04, 0x00, 0x00, 0x00, 0xe7, 0xa5, 0x24, 0x3f,
  0xe4, 0xfb, 0xff, 0xff, 0xe8, 0xfb, 0xff, 0xff, 0x0f, 0x00, 0x00, 0x00,
  0x4d, 0x4c, 0x49, 0x52, 0x20, 0x43, 0x6f, 0x6e, 0x76, 0x65, 0x72, 0x74,
  0x65, 0x64, 0x2e, 0x00, 0x01, 0x00, 0x00, 0x00, 0x14, 0x00, 0x00, 0x00,
  0x00, 0x00, 0x0e, 0x00, 0x18, 0x00, 0x14, 0x00, 0x10, 0x00, 0x0c, 0x00,
  0x08, 0x00, 0x04, 0x00, 0x0e, 0x00, 0x00, 0x00, 0x14, 0x00, 0x00, 0x00,
  0x1c, 0x00, 0x00, 0x00, 0xd0, 0x00, 0x00, 0x00, 0xd4, 0x00, 0x00, 0x00,
  0xd8, 0x00, 0x00, 0x00, 0x04, 0x00, 0x00, 0x00, 0x6d, 0x61, 0x69, 0x6e,
  0x00, 0x00, 0x00, 0x00, 0x03, 0x00, 0x00, 0x00, 0x78, 0x00, 0x00, 0x00,
  0x34, 0x00, 0x00, 0x00, 0x10, 0x00, 0x00, 0x00, 0x00, 0x00, 0x0a, 0x00,
  0x10, 0x00, 0x0c, 0x00, 0x08, 0x00, 0x04, 0x00, 0x0a, 0x00, 0x00, 0x00,
  0x0c, 0x00, 0x00, 0x00, 0x10, 0x00, 0x00, 0x00, 0x01, 0x00, 0x00, 0x00,
  0x01, 0x00, 0x00, 0x00, 0x07, 0x00, 0x00, 0x00, 0x01, 0x00, 0x00, 0x00,
  0x06, 0x00, 0x00, 0x00, 0xce, 0xff, 0xff, 0xff, 0x10, 0x00, 0x00, 0x00,
  0x00, 0x00, 0x00, 0x08, 0x0c, 0x00, 0x00, 0x00, 0x10, 0x00, 0x00, 0x00,
  0x8c, 0xfc, 0xff, 0xff, 0x01, 0x00, 0x00, 0x00, 0x06, 0x00, 0x00, 0x00,
  0x03, 0x00, 0x00, 0x00, 0x05, 0x00, 0x00, 0x00, 0x04, 0x00, 0x00, 0x00,
  0x01, 0x00, 0x00, 0x00, 0x00, 0x00, 0x0e, 0x00, 0x16, 0x00, 0x00, 0x00,
  0x10, 0x00, 0x0c, 0x00, 0x0b, 0x00, 0x04, 0x00, 0x0e, 0x00, 0x00, 0x00,
  0x18, 0x00, 0x00, 0x00, 0x00, 0x00, 0x00, 0x08, 0x18, 0x00, 0x00, 0x00,
  0x1c, 0x00, 0x00, 0x00, 0x00, 0x00, 0x06, 0x00, 0x08, 0x00, 0x07, 0x00,
  0x06, 0x00, 0x00, 0x00, 0x00, 0x00, 0x00, 0x01, 0x01, 0x00, 0x00, 0x00,
  0x05, 0x00, 0x00, 0x00, 0x03, 0x00, 0x00, 0x00, 0x00, 0x00, 0x00, 0x00,
  0x03, 0x00, 0x00, 0x00, 0x02, 0x00, 0x00, 0x00, 0x01, 0x00, 0x00, 0x00,
  0x07, 0x00, 0x00, 0x00, 0x01, 0x00, 0x00, 0x00, 0x00, 0x00, 0x00, 0x00,
  0x08, 0x00, 0x00, 0x00, 0xd0, 0x02, 0x00, 0x00, 0x60, 0x02, 0x00, 0x00,
  0xf4, 0x01, 0x00, 0x00, 0xac, 0x01, 0x00, 0x00, 0x60, 0x01, 0x00, 0x00,
  0xd8, 0x00, 0x00, 0x00, 0x60, 0x00, 0x00, 0x00, 0x04, 0x00, 0x00, 0x00,
  0x66, 0xfd, 0xff, 0xff, 0x00, 0x00, 0x00, 0x01, 0x14, 0x00, 0x00, 0x00,
  0x1c, 0x00, 0x00, 0x00, 0x1c, 0x00, 0x00, 0x00, 0x08, 0x00, 0x00, 0x00,
  0x34, 0x00, 0x00, 0x00, 0x02, 0x00, 0x00, 0x00, 0xff, 0xff, 0xff, 0xff,
  0x01, 0x00, 0x00, 0x00, 0x50, 0xfd, 0xff, 0xff, 0x19, 0x00, 0x00, 0x00,
  0x53, 0x74, 0x61, 0x74, 0x65, 0x66, 0x75, 0x6c, 0x50, 0x61, 0x72, 0x74,
  0x69, 0x74, 0x69, 0x6f, 0x6e, 0x65, 0x64, 0x43, 0x61, 0x6c, 0x6c, 0x3a,
  0x30, 0x00, 0x00, 0x00, 0x02, 0x00, 0x00, 0x00, 0x01, 0x00, 0x00, 0x00,
  0x01, 0x00, 0x00, 0x00, 0xbe, 0xfd, 0xff, 0xff, 0x00, 0x00, 0x00, 0x01,
  0x14, 0x00, 0x00, 0x00, 0x1c, 0x00, 0x00, 0x00, 0x1c, 0x00, 0x00, 0x00,
  0x07, 0x00, 0x00, 0x00, 0x50, 0x00, 0x00, 0x00, 0x02, 0x00, 0x00, 0x00,
  0xff, 0xff, 0xff, 0xff, 0x01, 0x00, 0x00, 0x00, 0xa8, 0xfd, 0xff, 0xff,
  0x34, 0x00, 0x00, 0x00, 0x73, 0x65, 0x71, 0x75, 0x65, 0x6e, 0x74, 0x69,
  0x61, 0x6c, 0x2f, 0x64, 0x65, 0x6e, 0x73, 0x65, 0x5f, 0x31, 0x2f, 0x4d,
  0x61, 0x74, 0x4d, 0x75, 0x6c, 0x3b, 0x73, 0x65, 0x71, 0x75, 0x65, 0x6e,
  0x74, 0x69, 0x61, 0x6c, 0x2f, 0x64, 0x65, 0x6e, 0x73, 0x65, 0x5f, 0x31,
  0x2f, 0x42, 0x69, 0x61, 0x73, 0x41, 0x64, 0x64, 0x00, 0x00, 0x00, 0x00,
  0x02, 0x00, 0x00, 0x00, 0x01, 0x00, 0x00, 0x00, 0x01, 0x00, 0x00, 0x00,
  0x32, 0xfe, 0xff, 0xff, 0x00, 0x00, 0x00, 0x01, 0x14, 0x00, 0x00, 0x00,
  0x1c, 0x00, 0x00, 0x00, 0x1c, 0x00, 0x00, 0x00, 0x06, 0x00, 0x00, 0x00,
  0x60, 0x00, 0x00, 0x00, 0x02, 0x00, 0x00, 0x00, 0xff, 0xff, 0xff, 0xff,
  0x08, 0x00, 0x00, 0x00, 0x1c, 0xfe, 0xff, 0xff, 0x46, 0x00, 0x00, 0x00,
  0x73, 0x65, 0x71, 0x75, 0x65, 0x6e, 0x74, 0x69, 0x61, 0x6c, 0x2f, 0x64,
  0x65, 0x6e, 0x73, 0x65, 0x2f, 0x4d, 0x61, 0x74, 0x4d, 0x75, 0x6c, 0x3b,
  0x73, 0x65, 0x71, 0x75, 0x65, 0x6e, 0x74, 0x69, 0x61, 0x6c, 0x2f, 0x64,
  0x65, 0x6e, 0x73, 0x65, 0x2f, 0x52, 0x65, 0x6c, 0x75, 0x3b, 0x73, 0x65,
  0x71, 0x75, 0x65, 0x6e, 0x74, 0x69, 0x61, 0x6c, 0x2f, 0x64, 0x65, 0x6e,
  0x73, 0x65, 0x2f, 0x42, 0x69, 0x61, 0x73, 0x41, 0x64, 0x64, 0x00, 0x00,
  0x02, 0x00, 0x00, 0x00, 0x01, 0x00, 0x00, 0x00, 0x08, 0x00, 0x00, 0x00,
  0x22, 0xff, 0xff, 0xff, 0x00, 0x00, 0x00, 0x01, 0x10, 0x00, 0x00, 0x00,
  0x10, 0x00, 0x00, 0x00, 0x05, 0x00, 0x00, 0x00, 0x28, 0x00, 0x00, 0x00,
  0x90, 0xfe, 0xff, 0xff, 0x19, 0x00, 0x00, 0x00, 0x73, 0x65, 0x71, 0x75,
  0x65, 0x6e, 0x74, 0x69, 0x61, 0x6c, 0x2f, 0x64, 0x65, 0x6e, 0x73, 0x65,
  0x5f, 0x31, 0x2f, 0x4d, 0x61, 0x74, 0x4d, 0x75, 0x6c, 0x00, 0x00, 0x00,
  0x02, 0x00, 0x00, 0x00, 0x01, 0x00, 0x00, 0x00, 0x08, 0x00, 0x00, 0x00,
  0x6a, 0xff, 0xff, 0xff, 0x00, 0x00, 0x00, 0x01, 0x10, 0x00, 0x00, 0x00,
  0x10, 0x00, 0x00, 0x00, 0x04, 0x00, 0x00, 0x00, 0x24, 0x00, 0x00, 0x00,
  0xd8, 0xfe, 0xff, 0xff, 0x17, 0x00, 0x00, 0x00, 0x73, 0x65, 0x71, 0x75,
  0x65, 0x6e, 0x74, 0x69, 0x61, 0x6c, 0x2f, 0x64, 0x65, 0x6e, 0x73, 0x65,
  0x2f, 0x4d, 0x61, 0x74, 0x4d, 0x75, 0x6c, 0x00, 0x02, 0x00, 0x00, 0x00,
  0x08, 0x00, 0x00, 0x00, 0x1d, 0x00, 0x00, 0x00, 0xae, 0xff, 0xff, 0xff,
  0x00, 0x00, 0x00, 0x01, 0x10, 0x00, 0x00, 0x00, 0x10, 0x00, 0x00, 0x00,
  0x03, 0x00, 0x00, 0x00, 0x34, 0x00, 0x00, 0x00, 0x1c, 0xff, 0xff, 0xff,
  0x27, 0x00, 0x00, 0x00, 0x73, 0x65, 0x71, 0x75, 0x65, 0x6e, 0x74, 0x69,
  0x61, 0x6c, 0x2f, 0x64, 0x65, 0x6e, 0x73, 0x65, 0x2f, 0x42, 0x69, 0x61,
  0x73, 0x41, 0x64, 0x64, 0x2f, 0x52, 0x65, 0x61, 0x64, 0x56, 0x61, 0x72,
  0x69, 0x61, 0x62, 0x6c, 0x65, 0x4f, 0x70, 0x00, 0x01, 0x00, 0x00, 0x00,
  0x08, 0x00, 0x00, 0x00, 0x00, 0x00, 0x16, 0x00, 0x18, 0x00, 0x14, 0x00,
  0x00, 0x00, 0x10, 0x00, 0x0c, 0x00, 0x08, 0x00, 0x00, 0x00, 0x00, 0x00,
  0x00, 0x00, 0x07, 0x00, 0x16, 0x00, 0x00, 0x00, 0x00, 0x00, 0x00, 0x01,
  0x10, 0x00, 0x00, 0x00, 0x10, 0x00, 0x00, 0x00, 0x02, 0x00, 0x00, 0x00,
  0x38, 0x00, 0x00, 0x00, 0x84, 0xff, 0xff, 0xff, 0x29, 0x00, 0x00, 0x00,
  0x73, 0x65, 0x71, 0x75, 0x65, 0x6e, 0x74, 0x69, 0x61, 0x6c, 0x2f, 0x64,
  0x65, 0x6e, 0x73, 0x65, 0x5f, 0x31, 0x2f, 0x42, 0x69, 0x61, 0x73, 0x41,
  0x64, 0x64, 0x2f, 0x52, 0x65, 0x61, 0x64, 0x56, 0x61, 0x72, 0x69, 0x61,
  0x62, 0x6c, 0x65, 0x4f, 0x70, 0x00, 0x00, 0x00, 0x01, 0x00, 0x00, 0x00,
  0x01, 0x00, 0x00, 0x00, 0x00, 0x00, 0x16, 0x00, 0x1c, 0x00, 0x18, 0x00,
  0x00, 0x00, 0x14, 0x00, 0x10, 0x00, 0x0c, 0x00, 0x00, 0x00, 0x00, 0x00,
  0x08, 0x00, 0x07, 0x00, 0x16, 0x00, 0x00, 0x00, 0x00, 0x00, 0x00, 0x01,
  0x14, 0x00, 0x00, 0x00, 0x20, 0x00, 0x00, 0x00, 0x20, 0x00, 0x00, 0x00,
  0x01, 0x00, 0x00, 0x00, 0x3c, 0x00, 0x00, 0x00, 0x02, 0x00, 0x00, 0x00,
  0xff, 0xff, 0xff, 0xff, 0x1d, 0x00, 0x00, 0x00, 0x04, 0x00, 0x04, 0x00,
  0x04, 0x00, 0x00, 0x00, 0x1d, 0x00, 0x00, 0x00, 0x73, 0x65, 0x72, 0x76,
  0x69, 0x6e, 0x67, 0x5f, 0x64, 0x65, 0x66, 0x61, 0x75, 0x6c, 0x74, 0x5f,
  0x64, 0x65, 0x6e, 0x73, 0x65, 0x5f, 0x69, 0x6e, 0x70, 0x75, 0x74, 0x3a,
  0x30, 0x00, 0x00, 0x00, 0x02, 0x00, 0x00, 0x00, 0x01, 0x00, 0x00, 0x00,
  0x1d, 0x00, 0x00, 0x00, 0x02, 0x00, 0x00, 0x00, 0x20, 0x00, 0x00, 0x00,
  0x04, 0x00, 0x00, 0x00, 0xf4, 0xff, 0xff, 0xff, 0x0e, 0x00, 0x00, 0x00,
  0x00, 0x00, 0x00, 0x0e, 0x0c, 0x00, 0x0c, 0x00, 0x0b, 0x00, 0x00, 0x00,
  0x00, 0x00, 0x04, 0x00, 0x0c, 0x00, 0x00, 0x00, 0x09, 0x00, 0x00, 0x00,
  0x00, 0x00, 0x00, 0x09
};
unsigned int model_5_quantized_tflite_len = 2656;
