unsigned char converted_model_tflite[] = {
  0x1c, 0x00, 0x00, 0x00, 0x54, 0x46, 0x4c, 0x33, 0x14, 0x00, 0x20, 0x00,
  0x1c, 0x00, 0x18, 0x00, 0x14, 0x00, 0x10, 0x00, 0x0c, 0x00, 0x00, 0x00,
  0x08, 0x00, 0x04, 0x00, 0x14, 0x00, 0x00, 0x00, 0x1c, 0x00, 0x00, 0x00,
  0x84, 0x00, 0x00, 0x00, 0xdc, 0x00, 0x00, 0x00, 0xa8, 0x04, 0x00, 0x00,
  0xb8, 0x04, 0x00, 0x00, 0xec, 0x08, 0x00, 0x00, 0x03, 0x00, 0x00, 0x00,
  0x01, 0x00, 0x00, 0x00, 0x04, 0x00, 0x00, 0x00, 0x0e, 0xfb, 0xff, 0xff,
  0x0c, 0x00, 0x00, 0x00, 0x1c, 0x00, 0x00, 0x00, 0x38, 0x00, 0x00, 0x00,
  0x0f, 0x00, 0x00, 0x00, 0x73, 0x65, 0x72, 0x76, 0x69, 0x6e, 0x67, 0x5f,
  0x64, 0x65, 0x66, 0x61, 0x75, 0x6c, 0x74, 0x00, 0x01, 0x00, 0x00, 0x00,
  0x04, 0x00, 0x00, 0x00, 0x98, 0xff, 0xff, 0xff, 0x07, 0x00, 0x00, 0x00,
  0x04, 0x00, 0x00, 0x00, 0x07, 0x00, 0x00, 0x00, 0x64, 0x65, 0x6e, 0x73,
  0x65, 0x5f, 0x31, 0x00, 0x01, 0x00, 0x00, 0x00, 0x04, 0x00, 0x00, 0x00,
  0xda, 0xfb, 0xff, 0xff, 0x04, 0x00, 0x00, 0x00, 0x0b, 0x00, 0x00, 0x00,
  0x64, 0x65, 0x6e, 0x73, 0x65, 0x5f, 0x69, 0x6e, 0x70, 0x75, 0x74, 0x00,
  0x02, 0x00, 0x00, 0x00, 0x34, 0x00, 0x00, 0x00, 0x04, 0x00, 0x00, 0x00,
  0xdc, 0xff, 0xff, 0xff, 0x0a, 0x00, 0x00, 0x00, 0x04, 0x00, 0x00, 0x00,
  0x13, 0x00, 0x00, 0x00, 0x43, 0x4f, 0x4e, 0x56, 0x45, 0x52, 0x53, 0x49,
  0x4f, 0x4e, 0x5f, 0x4d, 0x45, 0x54, 0x41, 0x44, 0x41, 0x54, 0x41, 0x00,
  0x08, 0x00, 0x0c, 0x00, 0x08, 0x00, 0x04, 0x00, 0x08, 0x00, 0x00, 0x00,
  0x09, 0x00, 0x00, 0x00, 0x04, 0x00, 0x00, 0x00, 0x13, 0x00, 0x00, 0x00,
  0x6d, 0x69, 0x6e, 0x5f, 0x72, 0x75, 0x6e, 0x74, 0x69, 0x6d, 0x65, 0x5f,
  0x76, 0x65, 0x72, 0x73, 0x69, 0x6f, 0x6e, 0x00, 0x0b, 0x00, 0x00, 0x00,
  0xc8, 0x03, 0x00, 0x00, 0xc0, 0x03, 0x00, 0x00, 0xac, 0x03, 0x00, 0x00,
  0x80, 0x03, 0x00, 0x00, 0xc8, 0x00, 0x00, 0x00, 0xa4, 0x00, 0x00, 0x00,
  0x9c, 0x00, 0x00, 0x00, 0x94, 0x00, 0x00, 0x00, 0x8c, 0x00, 0x00, 0x00,
  0x6c, 0x00, 0x00, 0x00, 0x04, 0x00, 0x00, 0x00, 0x7e, 0xfc, 0xff, 0xff,
  0x04, 0x00, 0x00, 0x00, 0x58, 0x00, 0x00, 0x00, 0x0c, 0x00, 0x00, 0x00,
  0x08, 0x00, 0x0e, 0x00, 0x08, 0x00, 0x04, 0x00, 0x08, 0x00, 0x00, 0x00,
  0x10, 0x00, 0x00, 0x00, 0x28, 0x00, 0x00, 0x00, 0x00, 0x00, 0x06, 0x00,
  0x08, 0x00, 0x04, 0x00, 0x06, 0x00, 0x00, 0x00, 0x04, 0x00, 0x00, 0x00,
  0x01, 0x00, 0x00, 0x00, 0xea, 0x03, 0x00, 0x00, 0x00, 0x00, 0x0a, 0x00,
  0x10, 0x00, 0x0c, 0x00, 0x08, 0x00, 0x04, 0x00, 0x0a, 0x00, 0x00, 0x00,
  0x02, 0x00, 0x00, 0x00, 0x02, 0x00, 0x00, 0x00, 0x04, 0x00, 0x00, 0x00,
  0x06, 0x00, 0x00, 0x00, 0x32, 0x2e, 0x31, 0x34, 0x2e, 0x30, 0x00, 0x00,
  0xe2, 0xfc, 0xff, 0xff, 0x04, 0x00, 0x00, 0x00, 0x10, 0x00, 0x00, 0x00,
  0x31, 0x2e, 0x31, 0x34, 0x2e, 0x30, 0x00, 0x00, 0x00, 0x00, 0x00, 0x00,
  0x00, 0x00, 0x00, 0x00, 0xcc, 0xf8, 0xff, 0xff, 0xd0, 0xf8, 0xff, 0xff,
  0xd4, 0xf8, 0xff, 0xff, 0x0a, 0xfd, 0xff, 0xff, 0x04, 0x00, 0x00, 0x00,
  0x14, 0x00, 0x00, 0x00, 0x92, 0x0d, 0xcf, 0xbf, 0x91, 0x4c, 0xf6, 0x3f,
  0x88, 0x7c, 0x48, 0xc0, 0x04, 0xee, 0xaa, 0x3f, 0x18, 0xd3, 0xac, 0x3f,
  0x2a, 0xfd, 0xff, 0xff, 0x04, 0x00, 0x00, 0x00, 0xa8, 0x02, 0x00, 0x00,
  0xad, 0xa4, 0x00, 0x3f, 0x47, 0xfa, 0x21, 0x3f, 0x94, 0xb9, 0x27, 0xbe,
  0x5c, 0x25, 0x84, 0xbf, 0xd1, 0x88, 0x50, 0x3f, 0xfb, 0xc0, 0x35, 0x3f,
  0x96, 0xb2, 0x90, 0x3f, 0xf6, 0x2e, 0x3d, 0xbf, 0x3b, 0xcb, 0x4e, 0xbf,
  0x8d, 0xac, 0xd8, 0xbe, 0x82, 0xa2, 0xbe, 0x3e, 0xbe, 0x96, 0xb0, 0xbf,
  0x85, 0x1d, 0x43, 0xbf, 0xff, 0x71, 0x72, 0xbe, 0x00, 0x7e, 0xb7, 0xbe,
  0x51, 0xb5, 0x34, 0xbf, 0x4d, 0x6b, 0x85, 0xbe, 0x37, 0xa8, 0x9a, 0xbe,
  0xa0, 0x2f, 0x9c, 0x3f, 0x02, 0xa0, 0x57, 0x3f, 0x47, 0x2c, 0x3c, 0x3e,
  0x3d, 0x07, 0x82, 0x3e, 0xe6, 0x60, 0x84, 0xbb, 0x05, 0xae, 0xd2, 0x3e,
  0xa0, 0x93, 0xb1, 0x3e, 0x6b, 0xb0, 0x41, 0xbc, 0x76, 0x2d, 0x3e, 0x3e,
  0x08, 0x03, 0xa1, 0x3e, 0x5e, 0xa7, 0x48, 0x3d, 0x84, 0x7b, 0xaf, 0xbc,
  0x4e, 0x31, 0x9e, 0x3e, 0x5b, 0x0d, 0xcd, 0xbe, 0x5c, 0xdc, 0x24, 0x3e,
  0xd1, 0x8b, 0xae, 0xbe, 0x4a, 0xa9, 0x17, 0x3e, 0x4a, 0x71, 0x4d, 0x3e,
  0x98, 0xb5, 0xa9, 0x3e, 0x62, 0xbd, 0x61, 0xbe, 0x1b, 0x69, 0x68, 0xbf,
  0xa8, 0x17, 0x82, 0x3e, 0x7f, 0x7e, 0x2b, 0xbf, 0xa0, 0x83, 0x0b, 0x40,
  0xb4, 0x01, 0x99, 0xbd, 0xa1, 0xfd, 0x06, 0xbf, 0x16, 0x02, 0xd6, 0xbd,
  0x5e, 0xab, 0x0b, 0x3f, 0x41, 0xc0, 0xd3, 0x3e, 0x5d, 0xa8, 0x8f, 0x3e,
  0x15, 0x82, 0x03, 0x3f, 0x8f, 0xaf, 0x6d, 0x3e, 0x74, 0x0a, 0x28, 0x3e,
  0xcd, 0xca, 0xa1, 0x3d, 0x55, 0xb7, 0x06, 0xbf, 0xf1, 0x78, 0xb5, 0xbd,
  0x01, 0x8e, 0x86, 0xbe, 0xf0, 0xfb, 0x21, 0x3f, 0x8f, 0xaa, 0xf6, 0x3d,
  0xd6, 0x21, 0xe6, 0xbd, 0x38, 0x72, 0xad, 0xbe, 0x6c, 0x5a, 0x38, 0x3e,
  0x44, 0x09, 0x04, 0xbe, 0x18, 0xed, 0x0d, 0xbd, 0xb2, 0x85, 0x35, 0xbe,
  0xd1, 0x3b, 0xb7, 0x3e, 0xa5, 0x8f, 0xb9, 0xbf, 0x80, 0xe6, 0xd8, 0xbe,
  0xc2, 0xdd, 0x05, 0xbf, 0x14, 0xf9, 0x8d, 0xbe, 0xfd, 0x40, 0x48, 0xbe,
  0x7e, 0x2f, 0x50, 0xbd, 0x52, 0x05, 0xd0, 0xbe, 0x65, 0x86, 0x4c, 0x3f,
  0x9b, 0xb6, 0xe1, 0xbe, 0x8d, 0x94, 0x1a, 0xbf, 0xca, 0x08, 0xe5, 0x3e,
  0x20, 0xa5, 0xc7, 0xbf, 0x5d, 0x40, 0x90, 0xbe, 0x15, 0xdb, 0xb0, 0x3d,
  0x17, 0x4a, 0xc4, 0x3e, 0x79, 0xe6, 0x95, 0xbc, 0xfb, 0x31, 0xeb, 0xbc,
  0x94, 0x80, 0xe7, 0x3e, 0xb6, 0xb7, 0x24, 0x3f, 0xea, 0xbc, 0xc9, 0xbe,
  0x96, 0xfb, 0x89, 0xbe, 0xe8, 0xa6, 0x7a, 0x3e, 0xcf, 0x5c, 0xe6, 0x3c,
  0xa6, 0x08, 0x26, 0xbe, 0x78, 0x8a, 0x3e, 0xbf, 0x69, 0xfe, 0x2f, 0x3c,
  0x6e, 0xfd, 0x78, 0xbc, 0xc3, 0x7b, 0x0b, 0x3f, 0x1d, 0xc5, 0x78, 0x3e,
  0x22, 0xb3, 0x91, 0x3e, 0x94, 0xbb, 0xe1, 0xbd, 0x9f, 0x97, 0xf6, 0xbd,
  0x64, 0x75, 0x59, 0x3e, 0x41, 0xc5, 0x4b, 0x3e, 0x0b, 0x77, 0x96, 0x3e,
  0xbb, 0xa5, 0xa3, 0xbc, 0xa3, 0xfc, 0xdc, 0xbd, 0x92, 0x14, 0x63, 0x3e,
  0xef, 0xe1, 0x79, 0xbe, 0x52, 0x47, 0xa8, 0x3c, 0xaa, 0xf0, 0xf1, 0xbe,
  0xb2, 0x97, 0xe8, 0xbe, 0xf5, 0xf5, 0xb1, 0xbf, 0x76, 0x31, 0x35, 0x3e,
  0x61, 0x20, 0xe8, 0xbe, 0xd6, 0xd7, 0xdf, 0x3f, 0x02, 0xc3, 0x2c, 0x3e,
  0x9c, 0xbc, 0x11, 0xbf, 0xa2, 0xf7, 0xb4, 0xbe, 0xb1, 0x18, 0x2d, 0xbe,
  0x6c, 0xc0, 0x62, 0x3e, 0xaa, 0x3a, 0xec, 0x3e, 0x2a, 0xae, 0x56, 0x3e,
  0x15, 0x25, 0xee, 0xbe, 0xd4, 0xc7, 0x44, 0x3e, 0x2d, 0x3f, 0x3a, 0x3e,
  0x49, 0x00, 0x05, 0xbf, 0x4e, 0xe1, 0x98, 0xbe, 0x03, 0x59, 0x20, 0xbf,
  0xa9, 0x72, 0x31, 0x3e, 0x15, 0xc6, 0x29, 0x3f, 0xef, 0xb8, 0x76, 0x3e,
  0x24, 0x2e, 0x95, 0x3e, 0x9b, 0x99, 0xf0, 0x3d, 0x3f, 0xc0, 0xb4, 0x3e,
  0xa0, 0xfd, 0xf4, 0x3d, 0x9b, 0x60, 0xbd, 0x3e, 0x83, 0x9d, 0x2c, 0xbe,
  0x15, 0xfc, 0xdd, 0xbe, 0x4f, 0x4e, 0x37, 0xbf, 0x9e, 0xdd, 0xf4, 0xbe,
  0x7b, 0xb2, 0x0b, 0xbf, 0xa8, 0x06, 0x30, 0xbb, 0xe0, 0x15, 0xd4, 0xbe,
  0x55, 0xa8, 0xe2, 0xbe, 0xf7, 0xe6, 0xca, 0x3e, 0x87, 0x74, 0xfc, 0x3d,
  0x52, 0xd0, 0x37, 0xbf, 0x10, 0x5a, 0x46, 0x3e, 0x29, 0xd6, 0x69, 0x3e,
  0x68, 0x42, 0x19, 0xbf, 0x80, 0xbb, 0x01, 0x3f, 0x2f, 0x27, 0xf4, 0x3e,
  0x86, 0xdc, 0x24, 0x3f, 0x2d, 0x60, 0x36, 0x3d, 0x4a, 0x08, 0x20, 0x3f,
  0xed, 0x8e, 0x84, 0x3e, 0x4c, 0xef, 0x01, 0x3e, 0x2d, 0x20, 0xf5, 0x3e,
  0xd6, 0x4d, 0x97, 0xbe, 0xbe, 0xac, 0x6c, 0xbe, 0x5d, 0xb2, 0x1e, 0xbe,
  0xaf, 0xb5, 0xfb, 0xbe, 0xb4, 0xab, 0x8f, 0xbe, 0xb2, 0x93, 0x00, 0x3e,
  0xa7, 0xbd, 0xb2, 0x3e, 0x98, 0xe4, 0x9c, 0x3e, 0x0c, 0x6b, 0x82, 0x3f,
  0x80, 0x5b, 0x58, 0x3f, 0xfd, 0xd2, 0x89, 0x3e, 0x04, 0xcb, 0xc9, 0xbe,
  0xef, 0xd7, 0xd5, 0xbe, 0xc6, 0x4d, 0x43, 0x3f, 0x00, 0x2d, 0x35, 0xbc,
  0xdc, 0xe2, 0x80, 0x3e, 0x78, 0xed, 0x78, 0x3d, 0xde, 0xff, 0xff, 0xff,
  0x04, 0x00, 0x00, 0x00, 0x14, 0x00, 0x00, 0x00, 0xf2, 0x4a, 0xd5, 0x3f,
  0x02, 0xf2, 0x49, 0xbe, 0x99, 0x74, 0xc4, 0x3f, 0xf0, 0xbb, 0x00, 0xbf,
  0x8d, 0x18, 0x18, 0xbf, 0x00, 0x00, 0x06, 0x00, 0x08, 0x00, 0x04, 0x00,
  0x06, 0x00, 0x00, 0x00, 0x04, 0x00, 0x00, 0x00, 0x04, 0x00, 0x00, 0x00,
  0xad, 0xc8, 0x27, 0x3e, 0xe4, 0xfb, 0xff, 0xff, 0xe8, 0xfb, 0xff, 0xff,
  0x0f, 0x00, 0x00, 0x00, 0x4d, 0x4c, 0x49, 0x52, 0x20, 0x43, 0x6f, 0x6e,
  0x76, 0x65, 0x72, 0x74, 0x65, 0x64, 0x2e, 0x00, 0x01, 0x00, 0x00, 0x00,
  0x14, 0x00, 0x00, 0x00, 0x00, 0x00, 0x0e, 0x00, 0x18, 0x00, 0x14, 0x00,
  0x10, 0x00, 0x0c, 0x00, 0x08, 0x00, 0x04, 0x00, 0x0e, 0x00, 0x00, 0x00,
  0x14, 0x00, 0x00, 0x00, 0x1c, 0x00, 0x00, 0x00, 0xd0, 0x00, 0x00, 0x00,
  0xd4, 0x00, 0x00, 0x00, 0xd8, 0x00, 0x00, 0x00, 0x04, 0x00, 0x00, 0x00,
  0x6d, 0x61, 0x69, 0x6e, 0x00, 0x00, 0x00, 0x00, 0x03, 0x00, 0x00, 0x00,
  0x78, 0x00, 0x00, 0x00, 0x34, 0x00, 0x00, 0x00, 0x10, 0x00, 0x00, 0x00,
  0x00, 0x00, 0x0a, 0x00, 0x10, 0x00, 0x0c, 0x00, 0x08, 0x00, 0x04, 0x00,
  0x0a, 0x00, 0x00, 0x00, 0x0c, 0x00, 0x00, 0x00, 0x10, 0x00, 0x00, 0x00,
  0x01, 0x00, 0x00, 0x00, 0x01, 0x00, 0x00, 0x00, 0x07, 0x00, 0x00, 0x00,
  0x01, 0x00, 0x00, 0x00, 0x06, 0x00, 0x00, 0x00, 0xce, 0xff, 0xff, 0xff,
  0x10, 0x00, 0x00, 0x00, 0x00, 0x00, 0x00, 0x08, 0x0c, 0x00, 0x00, 0x00,
  0x10, 0x00, 0x00, 0x00, 0x8c, 0xfc, 0xff, 0xff, 0x01, 0x00, 0x00, 0x00,
  0x06, 0x00, 0x00, 0x00, 0x03, 0x00, 0x00, 0x00, 0x05, 0x00, 0x00, 0x00,
  0x04, 0x00, 0x00, 0x00, 0x01, 0x00, 0x00, 0x00, 0x00, 0x00, 0x0e, 0x00,
  0x16, 0x00, 0x00, 0x00, 0x10, 0x00, 0x0c, 0x00, 0x0b, 0x00, 0x04, 0x00,
  0x0e, 0x00, 0x00, 0x00, 0x18, 0x00, 0x00, 0x00, 0x00, 0x00, 0x00, 0x08,
  0x18, 0x00, 0x00, 0x00, 0x1c, 0x00, 0x00, 0x00, 0x00, 0x00, 0x06, 0x00,
  0x08, 0x00, 0x07, 0x00, 0x06, 0x00, 0x00, 0x00, 0x00, 0x00, 0x00, 0x01,
  0x01, 0x00, 0x00, 0x00, 0x05, 0x00, 0x00, 0x00, 0x03, 0x00, 0x00, 0x00,
  0x00, 0x00, 0x00, 0x00, 0x03, 0x00, 0x00, 0x00, 0x02, 0x00, 0x00, 0x00,
  0x01, 0x00, 0x00, 0x00, 0x07, 0x00, 0x00, 0x00, 0x01, 0x00, 0x00, 0x00,
  0x00, 0x00, 0x00, 0x00, 0x08, 0x00, 0x00, 0x00, 0xd0, 0x02, 0x00, 0x00,
  0x60, 0x02, 0x00, 0x00, 0xf4, 0x01, 0x00, 0x00, 0xac, 0x01, 0x00, 0x00,
  0x60, 0x01, 0x00, 0x00, 0xd8, 0x00, 0x00, 0x00, 0x60, 0x00, 0x00, 0x00,
  0x04, 0x00, 0x00, 0x00, 0x66, 0xfd, 0xff, 0xff, 0x00, 0x00, 0x00, 0x01,
  0x14, 0x00, 0x00, 0x00, 0x1c, 0x00, 0x00, 0x00, 0x1c, 0x00, 0x00, 0x00,
  0x08, 0x00, 0x00, 0x00, 0x34, 0x00, 0x00, 0x00, 0x02, 0x00, 0x00, 0x00,
  0xff, 0xff, 0xff, 0xff, 0x01, 0x00, 0x00, 0x00, 0x50, 0xfd, 0xff, 0xff,
  0x19, 0x00, 0x00, 0x00, 0x53, 0x74, 0x61, 0x74, 0x65, 0x66, 0x75, 0x6c,
  0x50, 0x61, 0x72, 0x74, 0x69, 0x74, 0x69, 0x6f, 0x6e, 0x65, 0x64, 0x43,
  0x61, 0x6c, 0x6c, 0x3a, 0x30, 0x00, 0x00, 0x00, 0x02, 0x00, 0x00, 0x00,
  0x01, 0x00, 0x00, 0x00, 0x01, 0x00, 0x00, 0x00, 0xbe, 0xfd, 0xff, 0xff,
  0x00, 0x00, 0x00, 0x01, 0x14, 0x00, 0x00, 0x00, 0x1c, 0x00, 0x00, 0x00,
  0x1c, 0x00, 0x00, 0x00, 0x07, 0x00, 0x00, 0x00, 0x50, 0x00, 0x00, 0x00,
  0x02, 0x00, 0x00, 0x00, 0xff, 0xff, 0xff, 0xff, 0x01, 0x00, 0x00, 0x00,
  0xa8, 0xfd, 0xff, 0xff, 0x34, 0x00, 0x00, 0x00, 0x73, 0x65, 0x71, 0x75,
  0x65, 0x6e, 0x74, 0x69, 0x61, 0x6c, 0x2f, 0x64, 0x65, 0x6e, 0x73, 0x65,
  0x5f, 0x31, 0x2f, 0x4d, 0x61, 0x74, 0x4d, 0x75, 0x6c, 0x3b, 0x73, 0x65,
  0x71, 0x75, 0x65, 0x6e, 0x74, 0x69, 0x61, 0x6c, 0x2f, 0x64, 0x65, 0x6e,
  0x73, 0x65, 0x5f, 0x31, 0x2f, 0x42, 0x69, 0x61, 0x73, 0x41, 0x64, 0x64,
  0x00, 0x00, 0x00, 0x00, 0x02, 0x00, 0x00, 0x00, 0x01, 0x00, 0x00, 0x00,
  0x01, 0x00, 0x00, 0x00, 0x32, 0xfe, 0xff, 0xff, 0x00, 0x00, 0x00, 0x01,
  0x14, 0x00, 0x00, 0x00, 0x1c, 0x00, 0x00, 0x00, 0x1c, 0x00, 0x00, 0x00,
  0x06, 0x00, 0x00, 0x00, 0x60, 0x00, 0x00, 0x00, 0x02, 0x00, 0x00, 0x00,
  0xff, 0xff, 0xff, 0xff, 0x05, 0x00, 0x00, 0x00, 0x1c, 0xfe, 0xff, 0xff,
  0x46, 0x00, 0x00, 0x00, 0x73, 0x65, 0x71, 0x75, 0x65, 0x6e, 0x74, 0x69,
  0x61, 0x6c, 0x2f, 0x64, 0x65, 0x6e, 0x73, 0x65, 0x2f, 0x4d, 0x61, 0x74,
  0x4d, 0x75, 0x6c, 0x3b, 0x73, 0x65, 0x71, 0x75, 0x65, 0x6e, 0x74, 0x69,
  0x61, 0x6c, 0x2f, 0x64, 0x65, 0x6e, 0x73, 0x65, 0x2f, 0x52, 0x65, 0x6c,
  0x75, 0x3b, 0x73, 0x65, 0x71, 0x75, 0x65, 0x6e, 0x74, 0x69, 0x61, 0x6c,
  0x2f, 0x64, 0x65, 0x6e, 0x73, 0x65, 0x2f, 0x42, 0x69, 0x61, 0x73, 0x41,
  0x64, 0x64, 0x00, 0x00, 0x02, 0x00, 0x00, 0x00, 0x01, 0x00, 0x00, 0x00,
  0x05, 0x00, 0x00, 0x00, 0x22, 0xff, 0xff, 0xff, 0x00, 0x00, 0x00, 0x01,
  0x10, 0x00, 0x00, 0x00, 0x10, 0x00, 0x00, 0x00, 0x05, 0x00, 0x00, 0x00,
  0x28, 0x00, 0x00, 0x00, 0x90, 0xfe, 0xff, 0xff, 0x19, 0x00, 0x00, 0x00,
  0x73, 0x65, 0x71, 0x75, 0x65, 0x6e, 0x74, 0x69, 0x61, 0x6c, 0x2f, 0x64,
  0x65, 0x6e, 0x73, 0x65, 0x5f, 0x31, 0x2f, 0x4d, 0x61, 0x74, 0x4d, 0x75,
  0x6c, 0x00, 0x00, 0x00, 0x02, 0x00, 0x00, 0x00, 0x01, 0x00, 0x00, 0x00,
  0x05, 0x00, 0x00, 0x00, 0x6a, 0xff, 0xff, 0xff, 0x00, 0x00, 0x00, 0x01,
  0x10, 0x00, 0x00, 0x00, 0x10, 0x00, 0x00, 0x00, 0x04, 0x00, 0x00, 0x00,
  0x24, 0x00, 0x00, 0x00, 0xd8, 0xfe, 0xff, 0xff, 0x17, 0x00, 0x00, 0x00,
  0x73, 0x65, 0x71, 0x75, 0x65, 0x6e, 0x74, 0x69, 0x61, 0x6c, 0x2f, 0x64,
  0x65, 0x6e, 0x73, 0x65, 0x2f, 0x4d, 0x61, 0x74, 0x4d, 0x75, 0x6c, 0x00,
  0x02, 0x00, 0x00, 0x00, 0x05, 0x00, 0x00, 0x00, 0x22, 0x00, 0x00, 0x00,
  0xae, 0xff, 0xff, 0xff, 0x00, 0x00, 0x00, 0x01, 0x10, 0x00, 0x00, 0x00,
  0x10, 0x00, 0x00, 0x00, 0x03, 0x00, 0x00, 0x00, 0x34, 0x00, 0x00, 0x00,
  0x1c, 0xff, 0xff, 0xff, 0x27, 0x00, 0x00, 0x00, 0x73, 0x65, 0x71, 0x75,
  0x65, 0x6e, 0x74, 0x69, 0x61, 0x6c, 0x2f, 0x64, 0x65, 0x6e, 0x73, 0x65,
  0x2f, 0x42, 0x69, 0x61, 0x73, 0x41, 0x64, 0x64, 0x2f, 0x52, 0x65, 0x61,
  0x64, 0x56, 0x61, 0x72, 0x69, 0x61, 0x62, 0x6c, 0x65, 0x4f, 0x70, 0x00,
  0x01, 0x00, 0x00, 0x00, 0x05, 0x00, 0x00, 0x00, 0x00, 0x00, 0x16, 0x00,
  0x18, 0x00, 0x14, 0x00, 0x00, 0x00, 0x10, 0x00, 0x0c, 0x00, 0x08, 0x00,
  0x00, 0x00, 0x00, 0x00, 0x00, 0x00, 0x07, 0x00, 0x16, 0x00, 0x00, 0x00,
  0x00, 0x00, 0x00, 0x01, 0x10, 0x00, 0x00, 0x00, 0x10, 0x00, 0x00, 0x00,
  0x02, 0x00, 0x00, 0x00, 0x38, 0x00, 0x00, 0x00, 0x84, 0xff, 0xff, 0xff,
  0x29, 0x00, 0x00, 0x00, 0x73, 0x65, 0x71, 0x75, 0x65, 0x6e, 0x74, 0x69,
  0x61, 0x6c, 0x2f, 0x64, 0x65, 0x6e, 0x73, 0x65, 0x5f, 0x31, 0x2f, 0x42,
  0x69, 0x61, 0x73, 0x41, 0x64, 0x64, 0x2f, 0x52, 0x65, 0x61, 0x64, 0x56,
  0x61, 0x72, 0x69, 0x61, 0x62, 0x6c, 0x65, 0x4f, 0x70, 0x00, 0x00, 0x00,
  0x01, 0x00, 0x00, 0x00, 0x01, 0x00, 0x00, 0x00, 0x00, 0x00, 0x16, 0x00,
  0x1c, 0x00, 0x18, 0x00, 0x00, 0x00, 0x14, 0x00, 0x10, 0x00, 0x0c, 0x00,
  0x00, 0x00, 0x00, 0x00, 0x08, 0x00, 0x07, 0x00, 0x16, 0x00, 0x00, 0x00,
  0x00, 0x00, 0x00, 0x01, 0x14, 0x00, 0x00, 0x00, 0x20, 0x00, 0x00, 0x00,
  0x20, 0x00, 0x00, 0x00, 0x01, 0x00, 0x00, 0x00, 0x3c, 0x00, 0x00, 0x00,
  0x02, 0x00, 0x00, 0x00, 0xff, 0xff, 0xff, 0xff, 0x22, 0x00, 0x00, 0x00,
  0x04, 0x00, 0x04, 0x00, 0x04, 0x00, 0x00, 0x00, 0x1d, 0x00, 0x00, 0x00,
  0x73, 0x65, 0x72, 0x76, 0x69, 0x6e, 0x67, 0x5f, 0x64, 0x65, 0x66, 0x61,
  0x75, 0x6c, 0x74, 0x5f, 0x64, 0x65, 0x6e, 0x73, 0x65, 0x5f, 0x69, 0x6e,
  0x70, 0x75, 0x74, 0x3a, 0x30, 0x00, 0x00, 0x00, 0x02, 0x00, 0x00, 0x00,
  0x01, 0x00, 0x00, 0x00, 0x22, 0x00, 0x00, 0x00, 0x02, 0x00, 0x00, 0x00,
  0x20, 0x00, 0x00, 0x00, 0x04, 0x00, 0x00, 0x00, 0xf4, 0xff, 0xff, 0xff,
  0x0e, 0x00, 0x00, 0x00, 0x00, 0x00, 0x00, 0x0e, 0x0c, 0x00, 0x0c, 0x00,
  0x0b, 0x00, 0x00, 0x00, 0x00, 0x00, 0x04, 0x00, 0x0c, 0x00, 0x00, 0x00,
  0x09, 0x00, 0x00, 0x00, 0x00, 0x00, 0x00, 0x09
};
unsigned int converted_model_tflite_len = 2384;