unsigned char very_tiny_tflite[] = {
  0x1c, 0x00, 0x00, 0x00, 0x54, 0x46, 0x4c, 0x33, 0x14, 0x00, 0x20, 0x00,
  0x1c, 0x00, 0x18, 0x00, 0x14, 0x00, 0x10, 0x00, 0x0c, 0x00, 0x00, 0x00,
  0x08, 0x00, 0x04, 0x00, 0x14, 0x00, 0x00, 0x00, 0x1c, 0x00, 0x00, 0x00,
  0x84, 0x00, 0x00, 0x00, 0xdc, 0x00, 0x00, 0x00, 0xf4, 0x14, 0x00, 0x00,
  0x04, 0x15, 0x00, 0x00, 0xbc, 0x19, 0x00, 0x00, 0x03, 0x00, 0x00, 0x00,
  0x01, 0x00, 0x00, 0x00, 0x04, 0x00, 0x00, 0x00, 0x46, 0xea, 0xff, 0xff,
  0x0c, 0x00, 0x00, 0x00, 0x1c, 0x00, 0x00, 0x00, 0x38, 0x00, 0x00, 0x00,
  0x0f, 0x00, 0x00, 0x00, 0x73, 0x65, 0x72, 0x76, 0x69, 0x6e, 0x67, 0x5f,
  0x64, 0x65, 0x66, 0x61, 0x75, 0x6c, 0x74, 0x00, 0x01, 0x00, 0x00, 0x00,
  0x04, 0x00, 0x00, 0x00, 0x98, 0xff, 0xff, 0xff, 0x08, 0x00, 0x00, 0x00,
  0x04, 0x00, 0x00, 0x00, 0x07, 0x00, 0x00, 0x00, 0x64, 0x65, 0x6e, 0x73,
  0x65, 0x5f, 0x31, 0x00, 0x01, 0x00, 0x00, 0x00, 0x04, 0x00, 0x00, 0x00,
  0xe2, 0xea, 0xff, 0xff, 0x04, 0x00, 0x00, 0x00, 0x0b, 0x00, 0x00, 0x00,
  0x64, 0x65, 0x6e, 0x73, 0x65, 0x5f, 0x69, 0x6e, 0x70, 0x75, 0x74, 0x00,
  0x02, 0x00, 0x00, 0x00, 0x34, 0x00, 0x00, 0x00, 0x04, 0x00, 0x00, 0x00,
  0xdc, 0xff, 0xff, 0xff, 0x0b, 0x00, 0x00, 0x00, 0x04, 0x00, 0x00, 0x00,
  0x13, 0x00, 0x00, 0x00, 0x43, 0x4f, 0x4e, 0x56, 0x45, 0x52, 0x53, 0x49,
  0x4f, 0x4e, 0x5f, 0x4d, 0x45, 0x54, 0x41, 0x44, 0x41, 0x54, 0x41, 0x00,
  0x08, 0x00, 0x0c, 0x00, 0x08, 0x00, 0x04, 0x00, 0x08, 0x00, 0x00, 0x00,
  0x0a, 0x00, 0x00, 0x00, 0x04, 0x00, 0x00, 0x00, 0x13, 0x00, 0x00, 0x00,
  0x6d, 0x69, 0x6e, 0x5f, 0x72, 0x75, 0x6e, 0x74, 0x69, 0x6d, 0x65, 0x5f,
  0x76, 0x65, 0x72, 0x73, 0x69, 0x6f, 0x6e, 0x00, 0x0c, 0x00, 0x00, 0x00,
  0x14, 0x14, 0x00, 0x00, 0x0c, 0x14, 0x00, 0x00, 0xdc, 0x13, 0x00, 0x00,
  0x4c, 0x13, 0x00, 0x00, 0xbc, 0x04, 0x00, 0x00, 0xac, 0x00, 0x00, 0x00,
  0xa4, 0x00, 0x00, 0x00, 0x9c, 0x00, 0x00, 0x00, 0x94, 0x00, 0x00, 0x00,
  0x8c, 0x00, 0x00, 0x00, 0x6c, 0x00, 0x00, 0x00, 0x04, 0x00, 0x00, 0x00,
  0x8a, 0xeb, 0xff, 0xff, 0x04, 0x00, 0x00, 0x00, 0x58, 0x00, 0x00, 0x00,
  0x0c, 0x00, 0x00, 0x00, 0x08, 0x00, 0x0e, 0x00, 0x08, 0x00, 0x04, 0x00,
  0x08, 0x00, 0x00, 0x00, 0x10, 0x00, 0x00, 0x00, 0x28, 0x00, 0x00, 0x00,
  0x00, 0x00, 0x06, 0x00, 0x08, 0x00, 0x04, 0x00, 0x06, 0x00, 0x00, 0x00,
  0x04, 0x00, 0x00, 0x00, 0x01, 0x00, 0x00, 0x00, 0xea, 0x03, 0x00, 0x00,
  0x00, 0x00, 0x0a, 0x00, 0x10, 0x00, 0x0c, 0x00, 0x08, 0x00, 0x04, 0x00,
  0x0a, 0x00, 0x00, 0x00, 0x02, 0x00, 0x00, 0x00, 0x02, 0x00, 0x00, 0x00,
  0x04, 0x00, 0x00, 0x00, 0x06, 0x00, 0x00, 0x00, 0x32, 0x2e, 0x31, 0x34,
  0x2e, 0x30, 0x00, 0x00, 0xee, 0xeb, 0xff, 0xff, 0x04, 0x00, 0x00, 0x00,
  0x10, 0x00, 0x00, 0x00, 0x31, 0x2e, 0x31, 0x34, 0x2e, 0x30, 0x00, 0x00,
  0x00, 0x00, 0x00, 0x00, 0x00, 0x00, 0x00, 0x00, 0x00, 0xe8, 0xff, 0xff,
  0x04, 0xe8, 0xff, 0xff, 0x08, 0xe8, 0xff, 0xff, 0x0c, 0xe8, 0xff, 0xff,
  0x1a, 0xec, 0xff, 0xff, 0x04, 0x00, 0x00, 0x00, 0x00, 0x04, 0x00, 0x00,
  0x0b, 0x47, 0xbf, 0xbe, 0x28, 0xac, 0x1e, 0x3f, 0x70, 0xf4, 0xdc, 0xbf,
  0xa6, 0xa1, 0xa6, 0x3e, 0x41, 0x10, 0xe9, 0xbf, 0xfd, 0x70, 0x33, 0x3f,
  0x43, 0xbc, 0x26, 0x3f, 0xa0, 0x5d, 0x94, 0xbf, 0x60, 0xc6, 0xa9, 0xbe,
  0x81, 0xbe, 0xbb, 0xbf, 0x2c, 0xe2, 0xc1, 0x3e, 0x11, 0xfe, 0xb8, 0xbf,
  0x2b, 0x2a, 0x8b, 0xbe, 0x73, 0x46, 0x0c, 0xbf, 0x63, 0xa7, 0xa1, 0x3f,
  0x2b, 0xdb, 0xe4, 0xbf, 0x70, 0x1d, 0x04, 0x3e, 0x7a, 0x05, 0x21, 0xbf,
  0x59, 0x51, 0x06, 0xbe, 0xc7, 0x60, 0xb6, 0x3f, 0xbb, 0xd8, 0x51, 0xbf,
  0xfb, 0xff, 0x29, 0x3e, 0x92, 0x2b, 0xe6, 0x3f, 0x7d, 0x97, 0x69, 0xbf,
  0xcb, 0xbc, 0x64, 0x3f, 0x98, 0xdb, 0x87, 0x3f, 0x29, 0x01, 0xe8, 0xbd,
  0xa7, 0xff, 0xa0, 0x3e, 0xca, 0xc9, 0xf2, 0x3f, 0x6b, 0x9d, 0xab, 0x3e,
  0x85, 0x5f, 0x91, 0xbf, 0xc8, 0x6a, 0x93, 0xbf, 0x05, 0xbd, 0x87, 0xbe,
  0x9e, 0x30, 0x25, 0x3f, 0xfc, 0x0f, 0x07, 0x3d, 0x33, 0x84, 0xcc, 0x3e,
  0x21, 0xfd, 0x8c, 0xbf, 0x47, 0xd8, 0xab, 0xbf, 0xeb, 0x5c, 0x1f, 0x40,
  0xe8, 0x24, 0x73, 0x3e, 0x53, 0xfc, 0xae, 0xbe, 0x5b, 0x1b, 0xbc, 0x3e,
  0xb3, 0x8f, 0x70, 0xbe, 0xf8, 0x33, 0xfe, 0xbe, 0xb1, 0x47, 0x96, 0xbe,
  0x28, 0xbf, 0xc1, 0xbf, 0x2f, 0xf1, 0x06, 0x3f, 0x3e, 0x98, 0x42, 0xbd,
  0x7d, 0xcf, 0x06, 0x3f, 0xa1, 0xa1, 0x18, 0x40, 0x0e, 0xce, 0x74, 0x3f,
  0x7b, 0x00, 0xfb, 0x3e, 0x8a, 0x2f, 0x16, 0xc0, 0xd0, 0x10, 0x2d, 0x3e,
  0xcf, 0xac, 0x5d, 0x3d, 0x03, 0x48, 0x34, 0x3e, 0xf9, 0xc8, 0x03, 0x3f,
  0x58, 0xb6, 0x80, 0x3e, 0x26, 0xbc, 0xbd, 0xbf, 0x4f, 0xbe, 0x3b, 0xbb,
  0x08, 0x19, 0x8c, 0xbf, 0x9d, 0x24, 0xaa, 0x3f, 0x40, 0xe8, 0x62, 0xbe,
  0x9b, 0xc2, 0x8f, 0x3f, 0xf8, 0xe2, 0x53, 0x3f, 0xb4, 0x2b, 0x64, 0x3f,
  0x48, 0x60, 0xcb, 0xbe, 0xcc, 0xeb, 0x47, 0xbf, 0xb1, 0x93, 0x78, 0x3f,
  0xf9, 0x94, 0x19, 0x3f, 0x21, 0x9e, 0xa0, 0xbf, 0xc0, 0x37, 0x32, 0xbf,
  0x17, 0x43, 0x69, 0xbf, 0xcb, 0x3e, 0x99, 0x3f, 0x19, 0x8f, 0xaf, 0x3e,
  0x64, 0x6e, 0x9c, 0x3e, 0x13, 0x94, 0xcc, 0xbe, 0x3c, 0xa1, 0x82, 0x3f,
  0x04, 0xbb, 0xba, 0xbf, 0x62, 0x3b, 0x58, 0x3f, 0xf7, 0xf9, 0x86, 0xbf,
  0x54, 0x93, 0x10, 0xbe, 0xd5, 0xc1, 0x13, 0xbf, 0xa4, 0x5b, 0x81, 0x3f,
  0x36, 0xc3, 0xf8, 0x3d, 0x61, 0x6a, 0x9f, 0xbe, 0x0f, 0x67, 0x81, 0xbf,
  0x19, 0xd6, 0x28, 0xbf, 0x6e, 0x1f, 0x83, 0xbf, 0x2c, 0x61, 0xcf, 0xbe,
  0x3c, 0x07, 0x28, 0xbf, 0x94, 0xb5, 0xc0, 0xbe, 0xcc, 0xf5, 0x01, 0xbf,
  0xb3, 0x37, 0x6e, 0x3e, 0x85, 0x0d, 0x85, 0x3f, 0x94, 0x28, 0x62, 0xbd,
  0xa6, 0xa8, 0xdc, 0xbf, 0x7c, 0x18, 0xb5, 0x3f, 0x84, 0xce, 0x19, 0x3e,
  0x4e, 0x15, 0xdb, 0x3d, 0xe8, 0x64, 0xa8, 0x3d, 0x4b, 0xe5, 0x0d, 0x3f,
  0x8a, 0xe2, 0x2e, 0xbe, 0xdc, 0x06, 0xcc, 0xbc, 0x30, 0xba, 0x6d, 0x3e,
  0x63, 0x57, 0x98, 0xbd, 0xcb, 0x92, 0x8d, 0xbe, 0x69, 0x6e, 0x40, 0x3f,
  0xb8, 0xaf, 0x2a, 0xb9, 0x5e, 0x9c, 0xc1, 0x3d, 0x72, 0x7c, 0xa7, 0x3e,
  0xdc, 0x44, 0x52, 0x3f, 0x07, 0x1b, 0xc4, 0xbf, 0xab, 0x41, 0xc9, 0xbe,
  0x0e, 0x7a, 0x83, 0xbf, 0x76, 0x0d, 0x2f, 0xbc, 0x7a, 0xcf, 0xe5, 0x3e,
  0x28, 0x0a, 0x90, 0x3c, 0xcf, 0xee, 0x19, 0xc0, 0x64, 0x10, 0x60, 0x3f,
  0x54, 0x09, 0x45, 0xbf, 0x00, 0x9a, 0x35, 0x3e, 0x6e, 0xf0, 0xf5, 0x3f,
  0x8b, 0x76, 0x78, 0x3f, 0x3d, 0xc8, 0x05, 0x3f, 0x63, 0x77, 0xe8, 0xbe,
  0x9c, 0x01, 0xab, 0x3f, 0x91, 0x1b, 0x53, 0xbf, 0x1f, 0x80, 0x0a, 0xbf,
  0xb4, 0xff, 0x06, 0xc0, 0x80, 0x69, 0x60, 0xbd, 0x94, 0x1b, 0xd6, 0xbf,
  0xe1, 0xd1, 0x7f, 0x3f, 0xac, 0xe4, 0xef, 0xbe, 0xff, 0xe2, 0xcd, 0xbe,
  0x64, 0x8c, 0x96, 0x3e, 0x4f, 0x43, 0xd2, 0x3f, 0x01, 0xad, 0xad, 0xbf,
  0xcc, 0x3e, 0x9e, 0x3f, 0x06, 0x78, 0xa8, 0x3f, 0x9e, 0x02, 0xce, 0xbf,
  0x8d, 0x99, 0x63, 0x3f, 0x50, 0xe3, 0x46, 0xbe, 0xca, 0x1f, 0x92, 0x3f,
  0x8a, 0xb0, 0x55, 0x3f, 0xd3, 0xb2, 0x9b, 0xbf, 0x03, 0x7c, 0xa4, 0xbf,
  0xd0, 0xe2, 0x03, 0xc0, 0xbe, 0x68, 0x80, 0x3f, 0x8b, 0x6e, 0x4d, 0x3c,
  0xa7, 0xd8, 0x6a, 0x3f, 0x4a, 0xef, 0x94, 0xbe, 0xc8, 0xde, 0x12, 0x3f,
  0xf6, 0xc2, 0x99, 0x3f, 0x3a, 0xf1, 0x3e, 0x3e, 0xd7, 0x77, 0x05, 0xc0,
  0xdb, 0xa0, 0x16, 0xbf, 0x34, 0x85, 0xd6, 0xbf, 0xf0, 0x75, 0x91, 0xbf,
  0x4d, 0x8f, 0xdd, 0x3e, 0x60, 0xb3, 0xc2, 0x3e, 0x49, 0x99, 0x0c, 0xbf,
  0x1d, 0xc4, 0xcd, 0x3f, 0x90, 0x8d, 0xa0, 0x3f, 0x5b, 0x06, 0x14, 0x3f,
  0xe6, 0x04, 0x86, 0xbe, 0x4b, 0x39, 0xcb, 0xbe, 0xe5, 0x6d, 0x0a, 0x3f,
  0x0b, 0xe2, 0x92, 0x3f, 0xb0, 0x04, 0x4a, 0x3f, 0x45, 0x60, 0x89, 0xbf,
  0xcd, 0x42, 0xa5, 0xbf, 0xd3, 0x71, 0x85, 0x3f, 0xaf, 0xc8, 0x0e, 0x3f,
  0xc9, 0x08, 0xc1, 0x3e, 0xe0, 0x87, 0xf0, 0xbe, 0xcf, 0x9e, 0x3c, 0x3e,
  0x5f, 0x43, 0xf1, 0xbe, 0x25, 0x86, 0xb7, 0x3f, 0x0e, 0x62, 0x8e, 0xbf,
  0xab, 0x16, 0x0b, 0x40, 0x10, 0xe7, 0xba, 0xbf, 0xcc, 0x2f, 0x23, 0x3e,
  0x94, 0xcf, 0x38, 0x3f, 0xc3, 0xa3, 0x0c, 0x40, 0x41, 0xc9, 0x6b, 0x3e,
  0xcd, 0xa8, 0x67, 0xbe, 0xd5, 0x2e, 0x04, 0xbe, 0x4b, 0xa3, 0xa6, 0xbf,
  0xaf, 0x16, 0x05, 0x3c, 0x38, 0x4d, 0x39, 0x3e, 0x83, 0x75, 0x42, 0x3f,
  0x49, 0x0c, 0xb4, 0x3e, 0xd4, 0x0e, 0x76, 0x3d, 0x23, 0x55, 0x94, 0x3f,
  0x03, 0x25, 0x17, 0x40, 0xfe, 0x41, 0xf4, 0xbf, 0x4e, 0xb7, 0xf9, 0xbf,
  0x25, 0xb2, 0xd1, 0xbf, 0xdd, 0x1d, 0x8b, 0xbf, 0xd1, 0x8b, 0xbd, 0xbc,
  0x63, 0x60, 0x56, 0xbd, 0xa9, 0x09, 0x99, 0x3f, 0xd4, 0x76, 0xcd, 0xbf,
  0xff, 0xda, 0xb9, 0x3f, 0x29, 0x2d, 0x90, 0xbf, 0x04, 0x08, 0xf7, 0xbf,
  0xe8, 0xa5, 0xc0, 0xbf, 0x3c, 0x75, 0x7a, 0xbf, 0xd8, 0xeb, 0xb3, 0xbf,
  0x83, 0x75, 0xb0, 0x3f, 0x74, 0x65, 0x40, 0xbf, 0x46, 0x14, 0x33, 0xc0,
  0xd7, 0x38, 0x9a, 0xbf, 0x9c, 0x93, 0xcb, 0xbf, 0x09, 0x9c, 0x15, 0xc0,
  0x49, 0xab, 0xc5, 0xbe, 0x54, 0x8b, 0x87, 0xc0, 0x68, 0xcb, 0x96, 0x3e,
  0x77, 0x6d, 0x0f, 0x3f, 0xd0, 0x43, 0x84, 0x3f, 0x47, 0x47, 0x98, 0x3f,
  0x5e, 0xc1, 0x35, 0xbe, 0x9d, 0x3b, 0x5e, 0x3c, 0x63, 0x4f, 0xc1, 0x3f,
  0x50, 0x1c, 0x9e, 0x3e, 0x73, 0x8e, 0xf9, 0xbf, 0xed, 0x30, 0x3a, 0xbf,
  0xcf, 0x50, 0x18, 0xbf, 0x41, 0x6b, 0xd3, 0x3f, 0x69, 0x33, 0x68, 0xbe,
  0x63, 0x2a, 0xea, 0x3f, 0xf4, 0x4b, 0xa2, 0xbf, 0x5f, 0x67, 0xab, 0x3e,
  0x4b, 0x55, 0xd9, 0xbf, 0x97, 0x1c, 0x93, 0x3f, 0x46, 0xd4, 0x29, 0x3f,
  0x62, 0x7c, 0x4c, 0xbc, 0x28, 0x14, 0x6e, 0x3f, 0x16, 0x16, 0x73, 0x3e,
  0xfe, 0xbe, 0xd1, 0x3f, 0x49, 0xce, 0x1c, 0x3f, 0xfd, 0xd9, 0x2d, 0xbf,
  0xd3, 0x53, 0xde, 0x3f, 0x0c, 0x68, 0xa6, 0x3f, 0xab, 0xce, 0xc4, 0x3f,
  0x5d, 0x69, 0x10, 0x3f, 0x85, 0xaf, 0xf8, 0x3f, 0x94, 0x3a, 0xfc, 0xbf,
  0x20, 0xb3, 0xfe, 0xbe, 0x69, 0x45, 0xa9, 0x3f, 0xac, 0xff, 0xd8, 0x3f,
  0x17, 0x75, 0xee, 0x3e, 0xc1, 0x07, 0x4e, 0xbf, 0x4d, 0x66, 0x38, 0x3f,
  0xae, 0x2e, 0xa3, 0xbf, 0x26, 0xf0, 0xff, 0xff, 0x04, 0x00, 0x00, 0x00,
  0x80, 0x0e, 0x00, 0x00, 0x4c, 0x42, 0x4b, 0xbd, 0xb7, 0x36, 0x1d, 0x3e,
  0x76, 0xdb, 0x37, 0x3f, 0x6c, 0xd3, 0xdf, 0x3e, 0x99, 0x93, 0x13, 0xbf,
  0x3d, 0x8a, 0x70, 0xbf, 0xe9, 0x24, 0x69, 0xbf, 0xc6, 0xb8, 0xa6, 0x3e,
  0xa6, 0xb6, 0xf2, 0x3e, 0x5a, 0x3d, 0x6d, 0x3e, 0x22, 0xf3, 0xa3, 0x3e,
  0x13, 0x41, 0x61, 0xbf, 0xee, 0xa7, 0x1a, 0xbe, 0xc2, 0x00, 0xa1, 0xbe,
  0xe8, 0x46, 0x71, 0x3f, 0xd4, 0x38, 0xdf, 0x3e, 0x2f, 0xde, 0xc2, 0xbe,
  0x7b, 0x3c, 0x2f, 0x3e, 0xd2, 0x0d, 0x68, 0x3d, 0xb0, 0xc6, 0xe0, 0xbe,
  0xe2, 0xa3, 0x46, 0x3e, 0x22, 0xd2, 0x8d, 0x3e, 0x83, 0xc1, 0x08, 0x3f,
  0x89, 0x46, 0x53, 0x3e, 0x5e, 0x7a, 0x0b, 0xbf, 0x4f, 0x89, 0x5f, 0x3e,
  0x65, 0xf8, 0xa5, 0x3e, 0x63, 0xca, 0xaa, 0xbe, 0x2b, 0xd3, 0x34, 0xbf,
  0xf7, 0xba, 0xd2, 0xbf, 0x04, 0xef, 0x8c, 0x3f, 0xb1, 0x1e, 0x80, 0xbf,
  0x91, 0x1c, 0xbd, 0xbf, 0x5c, 0x67, 0x4f, 0x3e, 0x39, 0xbb, 0x18, 0x3f,
  0x9b, 0xc0, 0x44, 0xbf, 0x5c, 0x6f, 0x9b, 0xbd, 0x63, 0xd2, 0xa7, 0x3e,
  0x47, 0x8d, 0x06, 0x3f, 0x5c, 0x88, 0x3d, 0xbf, 0xbb, 0x21, 0x89, 0xbe,
  0xf7, 0x73, 0xa5, 0xbe, 0xcd, 0x6f, 0xf7, 0xbc, 0xa2, 0xee, 0x40, 0xbf,
  0xab, 0x82, 0x65, 0xbe, 0x9b, 0xbb, 0xa0, 0x3d, 0x6a, 0x52, 0x02, 0xbe,
  0x95, 0xf2, 0x57, 0xbe, 0x9f, 0x2e, 0x06, 0xbe, 0x9d, 0xc8, 0x76, 0xbf,
  0x8e, 0x34, 0xeb, 0xbd, 0xb0, 0x7b, 0x77, 0xbe, 0xe6, 0x5e, 0x49, 0xbf,
  0xf7, 0x99, 0xe0, 0xbc, 0xab, 0xcc, 0x64, 0xbf, 0x26, 0xb8, 0x39, 0xbf,
  0x6f, 0x2f, 0x91, 0xbd, 0xb3, 0xcf, 0x04, 0xbe, 0x37, 0x78, 0x38, 0xbe,
  0x64, 0x09, 0xcd, 0x3d, 0x26, 0x77, 0x9d, 0x3f, 0xb3, 0x51, 0x35, 0x3f,
  0x5d, 0x33, 0x59, 0xbf, 0xd5, 0xd6, 0x7e, 0xbf, 0xb8, 0x44, 0x12, 0xc0,
  0x40, 0xbf, 0x95, 0xbe, 0x9b, 0x2b, 0x99, 0xbf, 0x14, 0x5b, 0xf5, 0xbe,
  0x7f, 0xbe, 0xfa, 0x3e, 0xd5, 0x4b, 0x3d, 0x3f, 0xdc, 0xcf, 0x03, 0xbf,
  0x58, 0xe2, 0xde, 0xbe, 0x6a, 0xce, 0xc8, 0xbf, 0x9f, 0x34, 0x79, 0xbf,
  0xe1, 0x8a, 0x08, 0xbd, 0xa5, 0xde, 0x85, 0x3e, 0xa3, 0x4f, 0xb2, 0x3e,
  0xaf, 0xcb, 0x39, 0x3e, 0x1e, 0x1b, 0xc5, 0xbe, 0x37, 0x92, 0xee, 0xbe,
  0x7c, 0x94, 0xa9, 0xbe, 0x3d, 0xea, 0xfb, 0xbc, 0xc3, 0x66, 0x1c, 0x3e,
  0xc1, 0xb8, 0x05, 0x3d, 0x06, 0x66, 0xff, 0x3d, 0xa6, 0x0c, 0x65, 0xbe,
  0x85, 0xce, 0x64, 0xbe, 0x62, 0x9b, 0x2b, 0x3e, 0xee, 0x0d, 0x87, 0xbf,
  0x45, 0x0c, 0xb2, 0xbe, 0x81, 0x16, 0x8c, 0xbf, 0xf3, 0xb5, 0xa7, 0xbe,
  0x03, 0x24, 0x89, 0x3e, 0x62, 0xd8, 0x81, 0xbe, 0x20, 0xfc, 0xa5, 0xbe,
  0x99, 0x97, 0x83, 0xbe, 0xe0, 0x71, 0xaf, 0xbd, 0x3f, 0xd9, 0x1b, 0x3f,
  0x01, 0x3a, 0x40, 0xbe, 0x6f, 0x38, 0xf6, 0x3e, 0xd4, 0x25, 0xbd, 0x3e,
  0x86, 0x77, 0x99, 0x3f, 0xee, 0xb6, 0x65, 0x3f, 0x16, 0xf2, 0xe0, 0xbd,
  0x28, 0xaf, 0x0c, 0x3f, 0x3a, 0x8f, 0xd9, 0x3e, 0xa9, 0x33, 0x6c, 0x3e,
  0x20, 0xad, 0xb5, 0x3f, 0xfe, 0xb2, 0x09, 0x3f, 0x26, 0xb9, 0x6f, 0x3e,
  0xe9, 0x41, 0x4a, 0x3e, 0x0c, 0xb2, 0x8c, 0x3e, 0x06, 0x81, 0xcc, 0x3e,
  0xbb, 0x1e, 0xd0, 0x3c, 0xab, 0x73, 0x4c, 0x3f, 0x55, 0x67, 0xe8, 0x3e,
  0x99, 0x47, 0x27, 0xbd, 0x1e, 0xb6, 0x6a, 0xbd, 0x70, 0x6f, 0x5d, 0x3c,
  0x6a, 0x37, 0x96, 0xbf, 0xe4, 0x29, 0x62, 0xbe, 0x65, 0xe3, 0xa2, 0x3f,
  0xb8, 0x92, 0x2a, 0xbf, 0x62, 0x3a, 0xe1, 0x3e, 0xab, 0x4b, 0x4e, 0x3e,
  0x9d, 0x50, 0xce, 0xbd, 0xe4, 0xf7, 0xf8, 0xbe, 0xaa, 0x3e, 0x00, 0xbf,
  0x61, 0xd9, 0x93, 0xbe, 0x10, 0x40, 0x06, 0xbd, 0x14, 0x83, 0x2e, 0x3f,
  0x94, 0x60, 0xad, 0xbb, 0x35, 0x80, 0xba, 0xbe, 0xcc, 0xb7, 0x7b, 0xbe,
  0x4c, 0x93, 0x65, 0x3d, 0x9b, 0x90, 0xcf, 0xbd, 0x71, 0x02, 0xa9, 0x3e,
  0x12, 0xba, 0x31, 0x3e, 0xa8, 0x8f, 0xac, 0x3e, 0xea, 0xd2, 0xdb, 0x3e,
  0xe0, 0xcc, 0x04, 0xbf, 0xa8, 0x7e, 0xae, 0xbd, 0x31, 0x8e, 0x77, 0xbe,
  0xe1, 0x8b, 0xe7, 0x3e, 0x9a, 0xa2, 0xb8, 0x3d, 0xb6, 0x0d, 0xa4, 0x3b,
  0xb1, 0xea, 0x99, 0x3f, 0x02, 0x2d, 0x47, 0xbf, 0xbc, 0xb5, 0x22, 0xbe,
  0x3b, 0xc4, 0x5a, 0x3f, 0x74, 0xa5, 0x66, 0x3f, 0x5d, 0x78, 0x15, 0xbe,
  0x7e, 0x70, 0x08, 0x3d, 0x61, 0x6a, 0x66, 0x3e, 0x75, 0x46, 0x2b, 0x3e,
  0x7a, 0x10, 0xb1, 0x3e, 0xd8, 0x5c, 0x21, 0xbf, 0x59, 0x4d, 0x1d, 0xbd,
  0x33, 0xc3, 0xf2, 0xbc, 0x5c, 0xe1, 0x90, 0x3e, 0x4e, 0x96, 0xaa, 0xbe,
  0x6b, 0xf7, 0x80, 0xbc, 0xd8, 0xda, 0x39, 0xbf, 0x98, 0x94, 0x98, 0xbf,
  0x98, 0x2c, 0xe4, 0xbd, 0xe0, 0x3a, 0x41, 0x3f, 0x3e, 0xb6, 0xbd, 0x3e,
  0xa9, 0xb0, 0x06, 0x3f, 0x64, 0x88, 0x9a, 0x3d, 0x35, 0xa8, 0xb7, 0x3e,
  0x67, 0xf5, 0x83, 0xbf, 0xc2, 0xb5, 0x76, 0xbf, 0x70, 0x0d, 0xb8, 0xbd,
  0x4e, 0x9c, 0xb8, 0xbe, 0x8a, 0x2a, 0x2f, 0x3d, 0xce, 0xdf, 0x06, 0x3f,
  0x00, 0x26, 0x16, 0xbf, 0x88, 0x6d, 0x8d, 0x3e, 0x4e, 0xc5, 0x98, 0x3e,
  0x54, 0x36, 0x75, 0xbe, 0x88, 0x31, 0x7d, 0x3f, 0xc3, 0x27, 0x11, 0x3f,
  0x4a, 0x07, 0xb8, 0x3d, 0xd3, 0x70, 0xdb, 0xbd, 0x70, 0xb1, 0x54, 0x3e,
  0xe6, 0xbe, 0x41, 0x3f, 0x53, 0x31, 0x9e, 0xbd, 0x04, 0x65, 0x69, 0xbe,
  0xad, 0x4c, 0x54, 0x3f, 0x26, 0xd5, 0x9a, 0x3d, 0xc0, 0x18, 0x21, 0xbf,
  0x36, 0x82, 0x11, 0xbf, 0x99, 0xc6, 0xfb, 0xbe, 0x5b, 0x2e, 0x0f, 0xbe,
  0x27, 0x58, 0x3d, 0xbd, 0x95, 0x8f, 0x9d, 0x3e, 0x4d, 0x20, 0x9f, 0xbe,
  0xce, 0xf8, 0xde, 0xbe, 0x22, 0xcd, 0x01, 0x3e, 0xd5, 0xf2, 0xab, 0x3e,
  0x6f, 0xce, 0x81, 0x3c, 0xde, 0x49, 0xa8, 0xbe, 0x01, 0x4f, 0xaa, 0xbe,
  0xd7, 0x68, 0x82, 0xbf, 0x90, 0x3d, 0x69, 0xbf, 0xbe, 0x00, 0x2c, 0xbf,
  0xe1, 0x07, 0xb3, 0x3f, 0x00, 0x81, 0x5a, 0x3f, 0x30, 0xb1, 0xb3, 0x3e,
  0x40, 0xae, 0x62, 0xbf, 0x6b, 0x51, 0xcd, 0xbf, 0xc3, 0x1c, 0xf4, 0x3e,
  0x14, 0x3c, 0x69, 0x3f, 0xfe, 0xce, 0x61, 0xbf, 0x36, 0x65, 0x3b, 0xbd,
  0xfe, 0x4c, 0x5d, 0xbe, 0x1b, 0x85, 0x3e, 0xbc, 0xd1, 0xe3, 0xa4, 0x3f,
  0xd0, 0x0e, 0x9b, 0x3f, 0x42, 0xef, 0x94, 0xba, 0x83, 0x4a, 0x20, 0x3e,
  0xb7, 0x91, 0xab, 0xbd, 0x6f, 0xd8, 0xf8, 0xbe, 0x0c, 0x64, 0x1d, 0xbe,
  0xfa, 0x40, 0x9f, 0x3e, 0x35, 0x41, 0xa1, 0x3e, 0xab, 0x68, 0x20, 0x3f,
  0x37, 0x1b, 0x6a, 0x3d, 0xcb, 0xf8, 0xbd, 0x3d, 0x12, 0xd4, 0x17, 0xbe,
  0x81, 0xf6, 0xac, 0x3d, 0x84, 0x89, 0x95, 0x3e, 0x07, 0xf1, 0xb6, 0x3f,
  0x16, 0x4b, 0xbb, 0x3e, 0x84, 0xf7, 0x05, 0x3f, 0xf7, 0x67, 0x08, 0x3f,
  0x5c, 0xd1, 0x73, 0xbe, 0x41, 0x02, 0x65, 0xbf, 0x39, 0x31, 0x95, 0xbe,
  0x1d, 0x8c, 0x87, 0x3e, 0x02, 0x35, 0x6b, 0x3b, 0xca, 0x7a, 0x48, 0xbd,
  0xc0, 0xa2, 0x25, 0x3f, 0xe3, 0x9d, 0x53, 0x3f, 0xe6, 0x2b, 0x01, 0xbf,
  0x8d, 0xc4, 0xc5, 0xbe, 0xfa, 0x0e, 0x4e, 0xbe, 0x4b, 0x15, 0x33, 0xbe,
  0x3d, 0x4e, 0x63, 0xbe, 0x49, 0x6d, 0x60, 0x3f, 0x6a, 0xc4, 0x40, 0x3f,
  0x61, 0x74, 0x6a, 0x3e, 0x4e, 0x36, 0xf2, 0x3d, 0x15, 0xa4, 0x98, 0xbe,
  0x03, 0x6b, 0x91, 0x3d, 0x59, 0x07, 0x0a, 0x3d, 0x92, 0xad, 0x2c, 0x3e,
  0x8e, 0xac, 0x01, 0x3d, 0xc5, 0x22, 0xcd, 0x3c, 0x78, 0x33, 0xa7, 0x3e,
  0x4d, 0x78, 0x14, 0xbe, 0x58, 0x30, 0xaa, 0xbe, 0xa5, 0x01, 0xd7, 0x3e,
  0x06, 0xef, 0xd5, 0x3c, 0x61, 0xb4, 0xe8, 0xbf, 0x05, 0xdc, 0x2a, 0xbe,
  0xf4, 0xdf, 0x66, 0xbf, 0x42, 0xa8, 0x97, 0xbf, 0x5b, 0xd8, 0x5e, 0x3e,
  0x6f, 0xbf, 0xed, 0x3e, 0x5c, 0xfb, 0x10, 0x3f, 0x23, 0x41, 0xc4, 0x3f,
  0x95, 0xea, 0x05, 0x3f, 0x4e, 0x3d, 0x15, 0x3d, 0xfc, 0xf4, 0x9a, 0x3d,
  0xbb, 0xbd, 0x42, 0x3e, 0x0c, 0x36, 0x96, 0x3e, 0xc3, 0xac, 0x24, 0xbd,
  0x16, 0x0a, 0x25, 0x3e, 0x4f, 0x50, 0x44, 0x3e, 0xf6, 0xfa, 0x17, 0xbd,
  0x64, 0x65, 0x48, 0xbf, 0xcb, 0x7c, 0x00, 0xbf, 0x30, 0xfc, 0x2f, 0xbe,
  0xf4, 0xc2, 0x06, 0xbe, 0x9a, 0x4e, 0xf7, 0xbe, 0xd0, 0x15, 0x22, 0xbf,
  0xc1, 0xf6, 0xf6, 0x3e, 0x93, 0xbb, 0x84, 0xbe, 0x31, 0x58, 0x03, 0xbf,
  0x2c, 0x04, 0xb7, 0x3e, 0x5c, 0x76, 0x9a, 0xbf, 0xdc, 0x97, 0xa2, 0xbe,
  0xd5, 0xd3, 0x8f, 0x3d, 0xd9, 0x85, 0xfc, 0x3e, 0x73, 0x9b, 0xa5, 0xbe,
  0x4b, 0x2f, 0x7d, 0x3f, 0x06, 0x6d, 0xc6, 0x3e, 0x1d, 0x1b, 0x13, 0xbf,
  0x96, 0xa7, 0x0d, 0xbe, 0xd7, 0x1c, 0x3a, 0xbf, 0x58, 0xa7, 0xaf, 0x3d,
  0x8a, 0x16, 0xbb, 0xbd, 0xb4, 0xc2, 0xff, 0xbe, 0x66, 0xf4, 0xb3, 0xbf,
  0xf5, 0xb6, 0x7c, 0xbe, 0x62, 0x8d, 0x1f, 0x3f, 0x57, 0x19, 0x85, 0x3f,
  0xfa, 0x74, 0x07, 0x3f, 0x0f, 0xe1, 0x5d, 0x3f, 0xa6, 0x4c, 0xa1, 0x3b,
  0xf8, 0x96, 0x0a, 0xbe, 0x58, 0xe3, 0x2a, 0xbd, 0xd9, 0xc7, 0xcf, 0xbc,
  0x4f, 0x02, 0x36, 0x3f, 0x9f, 0x1a, 0x2a, 0x3f, 0xa4, 0x57, 0x01, 0xbe,
  0x51, 0x1b, 0xe6, 0x3e, 0x1f, 0x68, 0xc6, 0x3e, 0x9f, 0xdd, 0x83, 0xbf,
  0x09, 0xcc, 0xa9, 0x3f, 0xd9, 0x9e, 0x1d, 0x3f, 0x04, 0x1a, 0xea, 0x3e,
  0x41, 0x08, 0xd0, 0xbe, 0xda, 0xf7, 0xe5, 0x3c, 0x2a, 0xcc, 0xa7, 0xbf,
  0xa9, 0x9e, 0x3f, 0xbe, 0xc3, 0xf2, 0x57, 0x3e, 0x06, 0x3d, 0xfc, 0x3e,
  0xf8, 0xa0, 0xcd, 0x3d, 0xf9, 0x0d, 0xe8, 0xbe, 0xf1, 0xd4, 0x2f, 0xbe,
  0x3d, 0x77, 0xbf, 0xbe, 0xfd, 0x66, 0x8b, 0xbf, 0x52, 0x5d, 0x0e, 0x3e,
  0xb8, 0xb5, 0xb3, 0x3e, 0xd8, 0xdd, 0x98, 0xbd, 0x99, 0xda, 0xa7, 0x3e,
  0xbe, 0x01, 0x8f, 0x3d, 0x23, 0x12, 0xcd, 0x3c, 0x5f, 0x31, 0x35, 0xbe,
  0x5f, 0x95, 0x3c, 0xbe, 0xfe, 0xf3, 0x15, 0xbe, 0x93, 0x22, 0x95, 0x3e,
  0x02, 0x4b, 0x82, 0x3e, 0x56, 0x9f, 0x89, 0xbd, 0x3d, 0x86, 0x11, 0xbe,
  0xf5, 0x64, 0x7e, 0x3e, 0xbd, 0x59, 0x22, 0x40, 0x04, 0xea, 0xc9, 0xbe,
  0x7f, 0xe1, 0xa2, 0x3e, 0xe4, 0x93, 0x6a, 0xbd, 0xc6, 0x8a, 0xbf, 0xbe,
  0xfe, 0xfc, 0xa5, 0xbe, 0x72, 0xe9, 0x2d, 0xbf, 0x0f, 0xe6, 0x37, 0xbe,
  0xe5, 0x06, 0x02, 0xbf, 0x2a, 0x9e, 0x76, 0xbd, 0x68, 0x0c, 0x44, 0x3d,
  0x17, 0x03, 0xf5, 0xbe, 0x11, 0xc1, 0xdf, 0x3e, 0x86, 0xa1, 0xf0, 0x3d,
  0x4b, 0xf7, 0x2b, 0xbf, 0x43, 0x6c, 0xb9, 0x3c, 0x97, 0x41, 0x27, 0x3d,
  0xde, 0xfe, 0xd1, 0x3e, 0xf6, 0xee, 0x3a, 0x3f, 0x07, 0xbf, 0x16, 0x3f,
  0xc3, 0xc1, 0x63, 0xbc, 0xed, 0x90, 0x64, 0xbe, 0x13, 0x88, 0x59, 0x3e,
  0x05, 0xc4, 0x5a, 0x3e, 0x3b, 0xb1, 0xb6, 0x3e, 0x27, 0xb2, 0xd3, 0x3d,
  0x25, 0x0f, 0x82, 0x3e, 0x0d, 0xad, 0x1f, 0x3e, 0x2f, 0x46, 0x03, 0x3f,
  0xb7, 0xfd, 0x37, 0x3e, 0x06, 0x8e, 0x12, 0x3f, 0x4e, 0x0c, 0xa1, 0x3e,
  0x66, 0x47, 0x94, 0xbe, 0x2a, 0x1c, 0xd7, 0xbe, 0x4b, 0x98, 0xae, 0x3f,
  0xf0, 0x6a, 0xb3, 0xbe, 0x6c, 0xff, 0xd3, 0x3d, 0xf0, 0x68, 0xf0, 0x3e,
  0xcf, 0x52, 0x2a, 0x3b, 0x3e, 0x5b, 0x96, 0x3e, 0xbc, 0xad, 0x7f, 0xbe,
  0xb6, 0xf1, 0xd6, 0xbe, 0x15, 0xe5, 0x9a, 0xbe, 0xee, 0xe7, 0x99, 0xbe,
  0x29, 0x64, 0x10, 0xbf, 0x96, 0x57, 0x2b, 0xbd, 0x29, 0x0e, 0x17, 0x3e,
  0xa3, 0x82, 0x19, 0xbd, 0x46, 0xef, 0x15, 0xbc, 0x81, 0xd5, 0x6e, 0xbc,
  0xff, 0x79, 0xaf, 0x3d, 0xb8, 0x57, 0xef, 0x3e, 0x83, 0x98, 0x10, 0x3f,
  0x19, 0x3c, 0x85, 0x3e, 0xd0, 0xf0, 0x83, 0x3e, 0xf1, 0x21, 0x9b, 0xbe,
  0xb4, 0x0f, 0xc1, 0xbe, 0x71, 0x36, 0x47, 0xbd, 0x71, 0x53, 0x11, 0x3f,
  0xdf, 0x67, 0x4f, 0xbf, 0x0e, 0xdb, 0xf6, 0xbd, 0xf5, 0xb4, 0x40, 0xbf,
  0x99, 0xae, 0x80, 0xbe, 0xac, 0x52, 0xab, 0x3f, 0x7d, 0x07, 0xf0, 0xbf,
  0xb6, 0x8e, 0xf6, 0xbc, 0xa2, 0x17, 0xff, 0x3c, 0x35, 0x87, 0x8f, 0x3b,
  0x1a, 0xde, 0x59, 0xbe, 0xf0, 0xc4, 0xce, 0x3e, 0xa5, 0xd0, 0x0d, 0xbe,
  0xdb, 0x06, 0xb8, 0xbe, 0x96, 0x1b, 0xde, 0x3e, 0xbc, 0x60, 0x1c, 0xbe,
  0x9d, 0x87, 0x01, 0xbf, 0xbe, 0xee, 0x09, 0xbf, 0xac, 0xfb, 0xaa, 0xbe,
  0xfd, 0x1b, 0x23, 0x3f, 0x03, 0xac, 0x87, 0xbf, 0x84, 0x3e, 0x79, 0xbf,
  0x93, 0x3b, 0x20, 0xbf, 0x25, 0xaa, 0x3b, 0xbf, 0x56, 0x74, 0x13, 0xbf,
  0xfd, 0xcb, 0x8e, 0x3f, 0xa8, 0x88, 0x62, 0x3f, 0x60, 0x39, 0xbc, 0x3e,
  0xbe, 0x5c, 0x1f, 0x3f, 0xb2, 0x0e, 0x06, 0xc0, 0x1d, 0x0b, 0xac, 0x3e,
  0x96, 0x9e, 0xbe, 0xbd, 0x70, 0x18, 0x68, 0x3e, 0xa0, 0x71, 0xbb, 0x3e,
  0x6c, 0xbe, 0xc2, 0x3f, 0xf8, 0x50, 0xbd, 0x3e, 0x5f, 0x29, 0xe1, 0xbe,
  0xb6, 0x91, 0x54, 0xbd, 0xf7, 0x82, 0x24, 0x3f, 0xeb, 0xe9, 0x9a, 0x3c,
  0x50, 0x16, 0x22, 0xbd, 0x7e, 0x01, 0xf4, 0x3e, 0xa3, 0xab, 0x02, 0x3f,
  0xeb, 0x86, 0xf1, 0x3e, 0x3c, 0x1c, 0xc5, 0x3e, 0xd5, 0x18, 0x74, 0x3e,
  0x6f, 0x8d, 0xf4, 0xbe, 0x62, 0x65, 0xa8, 0xbe, 0xb0, 0x3c, 0x0a, 0xbf,
  0x01, 0x77, 0x01, 0xbe, 0x19, 0xc2, 0xd5, 0x3b, 0x6c, 0x59, 0x69, 0x3e,
  0x5c, 0xc8, 0xb0, 0x3d, 0x45, 0x81, 0xf5, 0x3d, 0xde, 0x32, 0x7e, 0xbe,
  0xbd, 0xb5, 0xa2, 0xbd, 0x50, 0xc3, 0xa1, 0x3d, 0xcc, 0xd3, 0x16, 0xbe,
  0x16, 0xde, 0x57, 0x3f, 0x53, 0x23, 0x02, 0x3f, 0x3e, 0xbb, 0xed, 0xbe,
  0x4f, 0x5b, 0x58, 0xbf, 0x75, 0x33, 0xa8, 0xbe, 0xe1, 0x8c, 0xf8, 0x3d,
  0x7e, 0x83, 0xae, 0xbd, 0xcc, 0xb8, 0x34, 0x3f, 0xcf, 0xa9, 0xf4, 0xbe,
  0x86, 0x5d, 0x2c, 0xbf, 0xc8, 0xe4, 0xa8, 0x3d, 0x3e, 0x4c, 0xd5, 0xbe,
  0xf6, 0xf8, 0x5e, 0xbe, 0xa2, 0x1d, 0x5e, 0x3d, 0xa6, 0x63, 0x01, 0xbf,
  0x3b, 0x27, 0x45, 0xbf, 0x0f, 0x6f, 0xc1, 0xbe, 0xce, 0xc7, 0xa5, 0x3e,
  0x05, 0x1b, 0xf9, 0x3e, 0xdb, 0x66, 0x1b, 0xbe, 0x39, 0xa6, 0x6c, 0x3d,
  0x10, 0xdc, 0x39, 0xbe, 0x2c, 0x7d, 0x18, 0x3e, 0x6a, 0xe2, 0x16, 0x3f,
  0x4e, 0xa8, 0x1a, 0x3e, 0x0b, 0xab, 0xaa, 0x3e, 0x96, 0x2d, 0x37, 0xbe,
  0x88, 0x98, 0x3e, 0xbe, 0x11, 0xb6, 0x5c, 0xbe, 0x21, 0xfb, 0x37, 0xbc,
  0xb9, 0xd8, 0xac, 0x3e, 0xf3, 0x3f, 0x92, 0xbf, 0xdb, 0x09, 0xa4, 0x3e,
  0xe2, 0x5e, 0x31, 0x3f, 0x45, 0xee, 0x65, 0x3e, 0x1b, 0x56, 0x32, 0x3f,
  0x84, 0xd2, 0xa1, 0x3f, 0x76, 0x56, 0x4c, 0x3e, 0xae, 0xf2, 0xcf, 0xbe,
  0x67, 0xa1, 0x3a, 0x3d, 0xaa, 0x75, 0x29, 0xbf, 0xd1, 0xee, 0xb2, 0xbe,
  0x91, 0xf1, 0x9f, 0xbe, 0xc8, 0xc9, 0x04, 0x3f, 0x13, 0x40, 0x1a, 0x3f,
  0xff, 0xad, 0x5b, 0x3e, 0x7f, 0xe6, 0xc9, 0xbe, 0xb1, 0x08, 0xe7, 0xbe,
  0x48, 0x4e, 0x95, 0x3e, 0x2f, 0xc6, 0x71, 0xbe, 0xa3, 0xab, 0x5b, 0x3e,
  0x8a, 0x58, 0xcf, 0xbc, 0x52, 0xf8, 0x77, 0xbe, 0x0c, 0xac, 0x07, 0xbf,
  0xca, 0x07, 0x27, 0x3e, 0x7b, 0x03, 0xd2, 0xbc, 0x4f, 0x21, 0xfb, 0x3d,
  0x0e, 0x10, 0x92, 0x3d, 0x1d, 0x4b, 0x04, 0xbd, 0x66, 0xf0, 0x19, 0x3f,
  0x5d, 0xcf, 0x79, 0x3e, 0x40, 0xb6, 0x76, 0x3f, 0x0e, 0x0d, 0x27, 0x3d,
  0x58, 0x07, 0xda, 0x3c, 0xa7, 0xa9, 0x2c, 0x3f, 0x5d, 0xd4, 0xe6, 0x3e,
  0x6c, 0xd4, 0x9e, 0xbd, 0x3a, 0xa4, 0x98, 0xbe, 0xdd, 0x42, 0x16, 0x3f,
  0x77, 0x21, 0x52, 0x3f, 0x9b, 0xd6, 0x80, 0xbe, 0xc8, 0xdb, 0x4b, 0xbe,
  0xa7, 0xaa, 0x4e, 0x3f, 0x96, 0x6c, 0xd1, 0xbe, 0xe0, 0x95, 0x2b, 0xbf,
  0xb8, 0x61, 0xf7, 0x3e, 0xe0, 0x33, 0xc5, 0x3d, 0xd8, 0x09, 0x15, 0x3e,
  0xf7, 0x33, 0x10, 0x3f, 0xa2, 0x48, 0x9c, 0x3e, 0x91, 0x56, 0x2c, 0x3e,
  0x9d, 0xb9, 0x2a, 0x3e, 0x9c, 0xf3, 0xaa, 0x3e, 0x03, 0x25, 0x90, 0xbe,
  0x41, 0x7f, 0x06, 0xbe, 0x33, 0x27, 0xea, 0xbe, 0x90, 0xd9, 0x8f, 0xbd,
  0x80, 0xb1, 0x71, 0x3f, 0x77, 0x55, 0x9d, 0xbe, 0x01, 0x54, 0xd5, 0xbe,
  0x45, 0x4c, 0x4f, 0x3f, 0xcf, 0xbe, 0x2c, 0x3f, 0xda, 0x10, 0x88, 0xbf,
  0xad, 0x10, 0xde, 0xbe, 0x63, 0x84, 0xdc, 0xbe, 0x2d, 0x3a, 0xb5, 0x3e,
  0x1e, 0xfb, 0x4b, 0x3e, 0x99, 0xbc, 0xf2, 0xbf, 0x76, 0xeb, 0xec, 0xbe,
  0x0b, 0xd0, 0xee, 0xbe, 0x4e, 0xa7, 0x7b, 0xbe, 0xf0, 0x7f, 0x1d, 0xbf,
  0x16, 0xea, 0xaf, 0x3e, 0xf7, 0xa6, 0x9d, 0x3e, 0x3e, 0x29, 0x83, 0xbf,
  0x90, 0x5e, 0xc6, 0xbe, 0x4f, 0x7b, 0xcc, 0xbe, 0xd3, 0x6e, 0x59, 0x3f,
  0x6a, 0xf0, 0x23, 0x3e, 0x72, 0x31, 0x2d, 0xbf, 0xd5, 0x5f, 0x15, 0xbf,
  0xaf, 0x26, 0x18, 0x3e, 0xf5, 0xc4, 0x25, 0x3f, 0x7c, 0x8f, 0x00, 0x3f,
  0xe3, 0xa7, 0x15, 0xbe, 0x64, 0x51, 0xec, 0x3e, 0x30, 0x7c, 0x18, 0xbf,
  0x56, 0x4b, 0x67, 0x3f, 0xa7, 0xf8, 0x09, 0x3d, 0xec, 0xb3, 0xc7, 0x3f,
  0xb5, 0x27, 0x81, 0x3f, 0xb2, 0x91, 0xab, 0x3f, 0xbc, 0x35, 0x2d, 0xbf,
  0xb1, 0x6f, 0x40, 0x3e, 0x4f, 0xa2, 0xe6, 0x3e, 0x02, 0x47, 0xaa, 0x3e,
  0x94, 0xb2, 0x99, 0xbf, 0xf9, 0x36, 0x9c, 0xbf, 0x93, 0x0c, 0x23, 0xbe,
  0x65, 0x3f, 0x58, 0x3e, 0x4c, 0x25, 0x18, 0x3e, 0x9a, 0x83, 0x0a, 0x3f,
  0xde, 0xa7, 0xd7, 0x3e, 0x5f, 0x49, 0x3c, 0xbf, 0xbb, 0xfa, 0x7c, 0xbf,
  0x47, 0xfa, 0x93, 0xbd, 0x43, 0x73, 0x8c, 0xbe, 0x96, 0xef, 0xbf, 0x3c,
  0xdf, 0x96, 0x0b, 0xbf, 0xc4, 0x44, 0x17, 0xbf, 0xef, 0x36, 0x9f, 0xbe,
  0xb0, 0xb1, 0x0a, 0x3f, 0x73, 0xb0, 0x13, 0x3d, 0x74, 0x76, 0x9a, 0xbe,
  0x4d, 0x75, 0x37, 0xbf, 0xda, 0x0b, 0x0c, 0x3f, 0xf0, 0xd2, 0xc1, 0x3f,
  0x39, 0x0d, 0x51, 0xbf, 0x77, 0x3a, 0x3c, 0x3f, 0xd4, 0x42, 0x22, 0x3f,
  0x0c, 0xe7, 0x95, 0x3e, 0x13, 0x67, 0xc1, 0x3d, 0x63, 0x57, 0xcc, 0x3d,
  0x4d, 0x65, 0xbc, 0xbe, 0x46, 0x21, 0xb1, 0xbb, 0x2e, 0x49, 0x65, 0xbe,
  0x5f, 0x0f, 0xe6, 0xbd, 0xa8, 0x27, 0x52, 0xbe, 0x31, 0xe3, 0x4c, 0xbe,
  0xeb, 0x57, 0x37, 0x3e, 0xdb, 0xd9, 0xba, 0x3e, 0xde, 0xb9, 0xdd, 0x3c,
  0xd6, 0x63, 0xc6, 0xbe, 0x99, 0x27, 0x60, 0xbe, 0xa2, 0xcd, 0x34, 0x3e,
  0x0b, 0x74, 0x8a, 0xbe, 0xe1, 0xcf, 0x81, 0x3e, 0xbc, 0xb3, 0xee, 0xbd,
  0xe2, 0x77, 0xc5, 0x3e, 0x30, 0x85, 0xfe, 0x3e, 0x45, 0xb5, 0x90, 0x3c,
  0x2a, 0xbc, 0x0d, 0xbe, 0x00, 0xa7, 0xfd, 0xbe, 0x37, 0xbd, 0xd7, 0xbe,
  0xe2, 0x11, 0x99, 0xbf, 0x3c, 0x29, 0x70, 0x3f, 0xf7, 0x05, 0x6d, 0xbf,
  0x8e, 0x6d, 0xf0, 0xbe, 0xb1, 0x61, 0x47, 0x3f, 0x75, 0xcd, 0x38, 0x3f,
  0x5c, 0x55, 0x4f, 0x3f, 0xad, 0xc5, 0x8d, 0x3e, 0xce, 0x28, 0x35, 0x3d,
  0x04, 0x04, 0x12, 0xbe, 0x2a, 0x90, 0x50, 0x3f, 0xd8, 0x11, 0xef, 0x3e,
  0xdd, 0x20, 0x2b, 0x3e, 0x32, 0x26, 0xcd, 0xbd, 0x51, 0x80, 0x1a, 0x3d,
  0x40, 0xda, 0x6a, 0x3e, 0x06, 0x39, 0x4d, 0x3e, 0x1a, 0x78, 0x28, 0xbf,
  0x5e, 0x41, 0x09, 0xbf, 0x4f, 0xe1, 0x90, 0xbd, 0x4c, 0x04, 0x9d, 0xbe,
  0x45, 0x3d, 0x01, 0xbd, 0x7a, 0x7e, 0xda, 0xbe, 0x76, 0xce, 0x69, 0xbd,
  0x40, 0x1d, 0xbb, 0xbd, 0xb3, 0xea, 0xea, 0xbd, 0x18, 0x61, 0x8f, 0x3e,
  0x0e, 0x71, 0x94, 0xbf, 0x37, 0x01, 0x76, 0xbf, 0xcb, 0x94, 0x8f, 0x3f,
  0x5c, 0x56, 0x70, 0xbf, 0x86, 0xac, 0xa4, 0x3e, 0xd3, 0xc4, 0x0e, 0x3f,
  0xad, 0x57, 0x15, 0x3e, 0xad, 0xdd, 0x44, 0x3f, 0x17, 0x0f, 0x7a, 0xbf,
  0xf0, 0x15, 0x9a, 0xbe, 0x86, 0x44, 0xd5, 0xbe, 0xd6, 0x47, 0x00, 0xbe,
  0xf4, 0xe3, 0x35, 0xbf, 0x54, 0x00, 0x22, 0xbf, 0xb1, 0x59, 0x9f, 0x3d,
  0xf9, 0xa2, 0x51, 0x3c, 0xad, 0x4e, 0x44, 0x3f, 0x15, 0x43, 0x95, 0x3e,
  0x46, 0x58, 0x96, 0xbd, 0xd0, 0xdc, 0xc1, 0xbe, 0xf6, 0x8a, 0xf1, 0xbd,
  0x80, 0x72, 0x99, 0x3c, 0x2a, 0x9b, 0x03, 0x3f, 0x30, 0xbf, 0x82, 0xbe,
  0x8b, 0x59, 0x16, 0x3f, 0xf4, 0x68, 0xfe, 0x3e, 0xee, 0xb8, 0xbe, 0xbd,
  0xf8, 0xae, 0x23, 0xbf, 0x05, 0xb0, 0xc3, 0xbe, 0xf9, 0x97, 0x31, 0x3d,
  0x3c, 0xd1, 0x79, 0xbe, 0xd0, 0xd8, 0xdf, 0xbe, 0x76, 0x54, 0x6e, 0x3f,
  0x29, 0x3a, 0xa8, 0x3e, 0x6a, 0x67, 0x60, 0xbe, 0x85, 0x14, 0xbf, 0xbc,
  0x34, 0x52, 0xbf, 0x3d, 0x12, 0xeb, 0x1a, 0x3f, 0xcc, 0x37, 0x61, 0xbd,
  0x3a, 0x67, 0x3c, 0x3d, 0x1e, 0xdf, 0xf0, 0xbd, 0x28, 0x1b, 0xd2, 0xbe,
  0x35, 0xa2, 0x9d, 0x3f, 0xf1, 0x2d, 0xbb, 0xbe, 0xac, 0x4a, 0xd0, 0xbe,
  0x06, 0x6e, 0xac, 0x3e, 0x3b, 0x63, 0x69, 0x3e, 0xbc, 0xf6, 0xd7, 0x3c,
  0xbb, 0x93, 0xaf, 0x3e, 0xc1, 0x61, 0x57, 0x3f, 0x0f, 0x81, 0x39, 0xbe,
  0x52, 0x5f, 0xe4, 0xbe, 0xb1, 0x58, 0x16, 0xbe, 0x1f, 0x08, 0x8b, 0x3e,
  0x23, 0x1f, 0x45, 0xbe, 0x73, 0x1f, 0x25, 0xbf, 0xa2, 0x31, 0x20, 0xbe,
  0x64, 0xb1, 0xec, 0x3d, 0xb7, 0x34, 0x28, 0xbf, 0x4e, 0x1f, 0x06, 0xbf,
  0xb3, 0xea, 0x99, 0x3e, 0x57, 0x34, 0xbe, 0x3f, 0xc3, 0xef, 0x37, 0x3f,
  0x29, 0xe3, 0x2e, 0xbf, 0xa4, 0x9e, 0x73, 0xbe, 0x6e, 0x87, 0x5c, 0xbf,
  0xf0, 0x8f, 0x52, 0x3c, 0x54, 0x73, 0xb6, 0x3d, 0x27, 0x8c, 0x27, 0xbe,
  0x8f, 0xed, 0x34, 0x3d, 0x18, 0xee, 0x19, 0xbf, 0x21, 0x86, 0x0d, 0x3d,
  0x00, 0xd3, 0x47, 0x3f, 0x4b, 0xcc, 0xdd, 0x3e, 0xe1, 0x3c, 0x5d, 0x3d,
  0x0d, 0x73, 0xcd, 0xbd, 0x8a, 0x14, 0x0b, 0x3d, 0xba, 0x21, 0xbe, 0xbe,
  0xc0, 0x76, 0x24, 0xbf, 0xd6, 0xeb, 0x0b, 0x3f, 0x39, 0x09, 0xfe, 0x3d,
  0xf7, 0x62, 0xb4, 0xbe, 0xb6, 0x22, 0x9f, 0x3e, 0x8c, 0x5a, 0xcc, 0x3d,
  0xf2, 0x93, 0x85, 0x3d, 0x61, 0xa6, 0xfe, 0x3d, 0xb4, 0x7c, 0x28, 0x3e,
  0x65, 0xdf, 0xcd, 0x3e, 0x42, 0x79, 0x01, 0x3f, 0x9e, 0x5e, 0x2c, 0xbd,
  0x86, 0x00, 0x4b, 0xbd, 0x04, 0xab, 0xca, 0xbe, 0x4c, 0xb6, 0xeb, 0x37,
  0xa6, 0x27, 0xef, 0x3d, 0x0e, 0xf1, 0x91, 0xbe, 0xfd, 0x56, 0x61, 0xbf,
  0xb1, 0x53, 0x94, 0x3e, 0xdb, 0xbe, 0x91, 0x3e, 0xb9, 0x50, 0x78, 0x3d,
  0xda, 0x50, 0xa6, 0x3f, 0x6a, 0x32, 0x65, 0xbf, 0x21, 0x69, 0x1a, 0xbe,
  0xff, 0xc7, 0x19, 0xbf, 0xff, 0xa0, 0x8b, 0xbe, 0xc2, 0xcb, 0x9f, 0x3d,
  0xdd, 0xd0, 0xe8, 0x3c, 0x13, 0xbd, 0x05, 0xbd, 0xf4, 0x4e, 0x03, 0x3e,
  0x2f, 0x2c, 0xc2, 0xbd, 0xc2, 0x6b, 0x23, 0xbd, 0xf3, 0xb7, 0x19, 0x3d,
  0x83, 0x68, 0x8b, 0x3e, 0xc3, 0x7e, 0x3e, 0xbe, 0x0a, 0xc8, 0x80, 0xbe,
  0x83, 0x77, 0xc5, 0xbe, 0xe6, 0x9b, 0xd3, 0x3d, 0x27, 0x7e, 0xaf, 0x3e,
  0x1b, 0x98, 0x3d, 0x3f, 0x76, 0xb0, 0x93, 0xbf, 0x8d, 0x6c, 0xc8, 0xbe,
  0x96, 0x68, 0x91, 0xbf, 0x2d, 0xa7, 0x2e, 0xbf, 0xa9, 0x05, 0x3e, 0x3f,
  0xa7, 0x68, 0x12, 0x3f, 0x56, 0xe4, 0x81, 0x3e, 0x3a, 0x8a, 0xfb, 0x3d,
  0xcf, 0xa3, 0x77, 0x3e, 0xb4, 0xea, 0xc1, 0x3d, 0x7a, 0x4b, 0x3d, 0x3f,
  0x8f, 0x7c, 0xfb, 0xbd, 0xd6, 0x11, 0x40, 0xbe, 0x71, 0x65, 0x74, 0xbe,
  0xe9, 0x52, 0x80, 0x3f, 0x20, 0xc1, 0x9e, 0x3d, 0xbe, 0x02, 0x69, 0x3c,
  0x3c, 0x33, 0x3b, 0xbe, 0x4f, 0x5e, 0x95, 0x3d, 0x4e, 0x07, 0xae, 0x3e,
  0xf1, 0x73, 0x34, 0x3f, 0x95, 0x33, 0x5e, 0x3e, 0x0c, 0x59, 0x42, 0x3f,
  0x90, 0x74, 0xf7, 0x3e, 0x0f, 0x7c, 0x03, 0x3f, 0xb3, 0x4a, 0x0e, 0xbf,
  0xab, 0x35, 0x14, 0xbf, 0x33, 0x20, 0xab, 0x3e, 0x19, 0xf6, 0x95, 0x3e,
  0x8d, 0x92, 0x5a, 0xbe, 0xc8, 0x7c, 0xcb, 0xbe, 0x94, 0xb3, 0xac, 0x3e,
  0xcf, 0x46, 0xbc, 0x3f, 0x24, 0xd4, 0x27, 0x3f, 0xed, 0x7f, 0x4d, 0x3f,
  0x1e, 0x1b, 0xfa, 0xbf, 0x27, 0x82, 0x67, 0xbf, 0xe4, 0x7f, 0xa5, 0x3e,
  0xcd, 0x13, 0x22, 0x3f, 0x42, 0x3a, 0x6c, 0x3b, 0xd2, 0xf5, 0xb4, 0xbf,
  0x6a, 0xc4, 0xba, 0xbd, 0x1c, 0x3d, 0x51, 0xbe, 0xda, 0xed, 0x8f, 0x3f,
  0x39, 0xf5, 0x1c, 0x3e, 0x3f, 0xd8, 0x4d, 0xbe, 0xaf, 0xd4, 0x06, 0xc0,
  0xaa, 0x00, 0x0c, 0xc0, 0x85, 0xbb, 0x2b, 0xbf, 0x88, 0x95, 0xa8, 0xbe,
  0xb6, 0x17, 0x33, 0xbc, 0xfb, 0x79, 0x1c, 0xbd, 0x07, 0x74, 0xf4, 0xbd,
  0x2d, 0x16, 0x85, 0xbe, 0x00, 0xfb, 0x25, 0xbe, 0x34, 0xd1, 0x99, 0x3e,
  0x29, 0xae, 0xf0, 0x3d, 0x39, 0xbf, 0x9c, 0x3d, 0xbb, 0xbf, 0x28, 0xbe,
  0xfe, 0xea, 0x56, 0x3e, 0x01, 0x71, 0xb1, 0xbe, 0x2f, 0x37, 0x0e, 0x3f,
  0x86, 0xcc, 0x54, 0x3f, 0x35, 0x83, 0x5d, 0x3f, 0x6d, 0x00, 0xc6, 0x3f,
  0x18, 0x8d, 0x1c, 0x3e, 0x86, 0x26, 0x8a, 0xbe, 0xb3, 0x7b, 0xa7, 0xbe,
  0xfb, 0xa2, 0x79, 0xbe, 0x82, 0x31, 0x6b, 0x3f, 0x11, 0x9f, 0x6c, 0xbe,
  0xb8, 0x61, 0xbe, 0x3d, 0x20, 0x18, 0xad, 0x3e, 0x7a, 0xe2, 0x35, 0x3f,
  0xc7, 0x5c, 0x19, 0x3d, 0x5e, 0xb1, 0x26, 0x3e, 0xa2, 0x22, 0x12, 0xbe,
  0x88, 0x47, 0x4b, 0x3e, 0xa0, 0x47, 0x3a, 0x3e, 0x20, 0x48, 0x94, 0xbe,
  0xa7, 0x81, 0x91, 0xbe, 0xef, 0x74, 0x78, 0xbe, 0x4a, 0x47, 0xc4, 0x3e,
  0xb5, 0x8d, 0xdc, 0xbe, 0x94, 0x14, 0x0e, 0xbf, 0xc4, 0x72, 0x14, 0xbf,
  0x84, 0x36, 0x27, 0xbf, 0x30, 0x1e, 0x17, 0x3f, 0xee, 0x87, 0x3a, 0x3f,
  0x0a, 0x0d, 0xe2, 0xbe, 0x1f, 0x3a, 0xa6, 0xbe, 0x63, 0x5a, 0x0c, 0x3f,
  0x7b, 0xf1, 0xe2, 0xbe, 0x8e, 0x6a, 0xe6, 0xbe, 0x1e, 0xfe, 0x89, 0xbc,
  0x3e, 0xe5, 0x1e, 0x3f, 0x9f, 0xc2, 0x90, 0x3e, 0xa6, 0x30, 0x42, 0x3e,
  0x1b, 0x83, 0x7e, 0xbf, 0xe3, 0x26, 0x13, 0x3f, 0xfe, 0x1e, 0x4d, 0x3f,
  0x96, 0x1c, 0x02, 0xbd, 0x14, 0x7c, 0x6c, 0x3e, 0x78, 0x85, 0xc4, 0x3e,
  0x12, 0xd2, 0x85, 0xbf, 0x8c, 0x33, 0x84, 0xbf, 0x6c, 0x3e, 0x92, 0xbe,
  0xb4, 0x25, 0x79, 0x3d, 0xca, 0xeb, 0x7f, 0x3e, 0xff, 0x62, 0x7a, 0xbe,
  0x53, 0xff, 0x0d, 0xbf, 0x86, 0x83, 0xfb, 0xbe, 0x34, 0xbb, 0x6e, 0xbf,
  0x76, 0x45, 0x09, 0x3e, 0xf4, 0x52, 0x59, 0x3e, 0xc1, 0xf4, 0xe7, 0x3e,
  0x6c, 0x51, 0xfe, 0xbe, 0xe2, 0xa1, 0xd7, 0x3e, 0x04, 0x2e, 0x51, 0x3e,
  0xf9, 0xa4, 0x49, 0xbf, 0xab, 0xeb, 0x30, 0xbf, 0xa1, 0xe7, 0x10, 0xbf,
  0xac, 0xf9, 0x92, 0x3d, 0x23, 0x6a, 0x84, 0x3e, 0x46, 0xbf, 0x59, 0x3e,
  0xc0, 0xef, 0xfa, 0xbd, 0x5b, 0xc2, 0x10, 0xbf, 0xf1, 0xb2, 0x41, 0x3f,
  0xa5, 0x50, 0x15, 0x3e, 0x62, 0x98, 0xf6, 0x3d, 0xa9, 0xfb, 0x71, 0xbe,
  0xb0, 0xb4, 0xd2, 0xbd, 0x4f, 0x3b, 0x1e, 0xbe, 0xb5, 0x9a, 0xc3, 0x3e,
  0x3a, 0xc8, 0xeb, 0x3e, 0x2b, 0x11, 0xf4, 0x3d, 0x45, 0x21, 0xb2, 0xbe,
  0xbb, 0xf0, 0x01, 0x3e, 0xb3, 0x9f, 0xab, 0x3e, 0x24, 0x7a, 0xe9, 0x3e,
  0x23, 0x6f, 0x3d, 0xbe, 0xf0, 0x82, 0x7d, 0xbe, 0xeb, 0x05, 0x9e, 0xbe,
  0xb0, 0xe4, 0x81, 0x3d, 0xfd, 0x03, 0x90, 0x3e, 0xb2, 0xfe, 0xff, 0xff,
  0x04, 0x00, 0x00, 0x00, 0x80, 0x00, 0x00, 0x00, 0x26, 0xc6, 0x50, 0xbf,
  0xc7, 0x95, 0x8d, 0xbe, 0x2f, 0x54, 0xb6, 0xbf, 0xb6, 0xd0, 0x3e, 0x3f,
  0x21, 0x6d, 0xd2, 0x3e, 0xa1, 0x34, 0x31, 0x3f, 0x40, 0xb7, 0x78, 0xbe,
  0x82, 0x26, 0xc4, 0xbe, 0x83, 0x90, 0x56, 0x3d, 0xde, 0x08, 0x52, 0x3f,
  0x10, 0x2e, 0x5b, 0xbe, 0x2a, 0x85, 0x7d, 0x3f, 0xea, 0x9f, 0x0d, 0xbf,
  0x0f, 0xa3, 0x1d, 0xbe, 0x04, 0xdc, 0xf9, 0xbe, 0xce, 0x34, 0xa0, 0xbe,
  0xe1, 0xc1, 0x16, 0xbf, 0x98, 0x76, 0x69, 0xbc, 0x3e, 0xe2, 0x00, 0xbe,
  0x3e, 0x3f, 0xd5, 0xbd, 0xaa, 0xf6, 0xdb, 0xbd, 0x9f, 0xf4, 0xb3, 0x3e,
  0xea, 0x26, 0x07, 0x3e, 0x18, 0xa4, 0xc6, 0xbe, 0xf6, 0xcc, 0x34, 0x3e,
  0xea, 0x61, 0xda, 0x3f, 0x02, 0x62, 0xa1, 0xbe, 0x7d, 0x3f, 0xea, 0x3e,
  0x4d, 0xd3, 0x2e, 0x3f, 0xbb, 0x19, 0x15, 0x3d, 0xea, 0x8b, 0x45, 0x3f,
  0x39, 0x3c, 0x25, 0x3f, 0x3e, 0xff, 0xff, 0xff, 0x04, 0x00, 0x00, 0x00,
  0x20, 0x00, 0x00, 0x00, 0x08, 0xff, 0x4f, 0xbe, 0x1d, 0xb6, 0x36, 0x3f,
  0x56, 0x6c, 0x9e, 0xbd, 0xd4, 0x60, 0xe0, 0xbe, 0x8d, 0xa9, 0xef, 0x3e,
  0xd2, 0x6d, 0x0e, 0x3f, 0x5e, 0x2f, 0x66, 0x3e, 0xc5, 0x15, 0x90, 0xbf,
  0x60, 0xfb, 0xff, 0xff, 0x64, 0xfb, 0xff, 0xff, 0x0f, 0x00, 0x00, 0x00,
  0x4d, 0x4c, 0x49, 0x52, 0x20, 0x43, 0x6f, 0x6e, 0x76, 0x65, 0x72, 0x74,
  0x65, 0x64, 0x2e, 0x00, 0x01, 0x00, 0x00, 0x00, 0x14, 0x00, 0x00, 0x00,
  0x00, 0x00, 0x0e, 0x00, 0x18, 0x00, 0x14, 0x00, 0x10, 0x00, 0x0c, 0x00,
  0x08, 0x00, 0x04, 0x00, 0x0e, 0x00, 0x00, 0x00, 0x14, 0x00, 0x00, 0x00,
  0x1c, 0x00, 0x00, 0x00, 0x10, 0x01, 0x00, 0x00, 0x14, 0x01, 0x00, 0x00,
  0x18, 0x01, 0x00, 0x00, 0x04, 0x00, 0x00, 0x00, 0x6d, 0x61, 0x69, 0x6e,
  0x00, 0x00, 0x00, 0x00, 0x04, 0x00, 0x00, 0x00, 0xc4, 0x00, 0x00, 0x00,
  0x90, 0x00, 0x00, 0x00, 0x50, 0x00, 0x00, 0x00, 0x14, 0x00, 0x00, 0x00,
  0x00, 0x00, 0x0e, 0x00, 0x1a, 0x00, 0x14, 0x00, 0x10, 0x00, 0x0c, 0x00,
  0x0b, 0x00, 0x04, 0x00, 0x0e, 0x00, 0x00, 0x00, 0x1c, 0x00, 0x00, 0x00,
  0x00, 0x00, 0x00, 0x09, 0x1c, 0x00, 0x00, 0x00, 0x20, 0x00, 0x00, 0x00,
  0x02, 0x00, 0x00, 0x00, 0x00, 0x00, 0x06, 0x00, 0x08, 0x00, 0x04, 0x00,
  0x06, 0x00, 0x00, 0x00, 0x00, 0x00, 0x80, 0x3f, 0x01, 0x00, 0x00, 0x00,
  0x08, 0x00, 0x00, 0x00, 0x01, 0x00, 0x00, 0x00, 0x07, 0x00, 0x00, 0x00,
  0xa2, 0xff, 0xff, 0xff, 0x10, 0x00, 0x00, 0x00, 0x00, 0x00, 0x00, 0x08,
  0x0c, 0x00, 0x00, 0x00, 0x10, 0x00, 0x00, 0x00, 0x28, 0xfc, 0xff, 0xff,
  0x01, 0x00, 0x00, 0x00, 0x07, 0x00, 0x00, 0x00, 0x03, 0x00, 0x00, 0x00,
  0x06, 0x00, 0x00, 0x00, 0x04, 0x00, 0x00, 0x00, 0x01, 0x00, 0x00, 0x00,
  0x00, 0x00, 0x0a, 0x00, 0x10, 0x00, 0x0c, 0x00, 0x08, 0x00, 0x04, 0x00,
  0x0a, 0x00, 0x00, 0x00, 0x0c, 0x00, 0x00, 0x00, 0x10, 0x00, 0x00, 0x00,
  0x01, 0x00, 0x00, 0x00, 0x01, 0x00, 0x00, 0x00, 0x06, 0x00, 0x00, 0x00,
  0x01, 0x00, 0x00, 0x00, 0x05, 0x00, 0x00, 0x00, 0x00, 0x00, 0x0e, 0x00,
  0x14, 0x00, 0x00, 0x00, 0x10, 0x00, 0x0c, 0x00, 0x0b, 0x00, 0x04, 0x00,
  0x0e, 0x00, 0x00, 0x00, 0x10, 0x00, 0x00, 0x00, 0x00, 0x00, 0x00, 0x08,
  0x0c, 0x00, 0x00, 0x00, 0x10, 0x00, 0x00, 0x00, 0x94, 0xfc, 0xff, 0xff,
  0x01, 0x00, 0x00, 0x00, 0x05, 0x00, 0x00, 0x00, 0x03, 0x00, 0x00, 0x00,
  0x00, 0x00, 0x00, 0x00, 0x03, 0x00, 0x00, 0x00, 0x02, 0x00, 0x00, 0x00,
  0x01, 0x00, 0x00, 0x00, 0x08, 0x00, 0x00, 0x00, 0x01, 0x00, 0x00, 0x00,
  0x00, 0x00, 0x00, 0x00, 0x09, 0x00, 0x00, 0x00, 0x14, 0x03, 0x00, 0x00,
  0xa4, 0x02, 0x00, 0x00, 0x38, 0x02, 0x00, 0x00, 0xf0, 0x01, 0x00, 0x00,
  0xa4, 0x01, 0x00, 0x00, 0x30, 0x01, 0x00, 0x00, 0xd8, 0x00, 0x00, 0x00,
  0x60, 0x00, 0x00, 0x00, 0x04, 0x00, 0x00, 0x00, 0x26, 0xfd, 0xff, 0xff,
  0x00, 0x00, 0x00, 0x01, 0x14, 0x00, 0x00, 0x00, 0x1c, 0x00, 0x00, 0x00,
  0x1c, 0x00, 0x00, 0x00, 0x09, 0x00, 0x00, 0x00, 0x34, 0x00, 0x00, 0x00,
  0x02, 0x00, 0x00, 0x00, 0xff, 0xff, 0xff, 0xff, 0x08, 0x00, 0x00, 0x00,
  0x10, 0xfd, 0xff, 0xff, 0x19, 0x00, 0x00, 0x00, 0x53, 0x74, 0x61, 0x74,
  0x65, 0x66, 0x75, 0x6c, 0x50, 0x61, 0x72, 0x74, 0x69, 0x74, 0x69, 0x6f,
  0x6e, 0x65, 0x64, 0x43, 0x61, 0x6c, 0x6c, 0x3a, 0x30, 0x00, 0x00, 0x00,
  0x02, 0x00, 0x00, 0x00, 0x01, 0x00, 0x00, 0x00, 0x08, 0x00, 0x00, 0x00,
  0x7e, 0xfd, 0xff, 0xff, 0x00, 0x00, 0x00, 0x01, 0x14, 0x00, 0x00, 0x00,
  0x1c, 0x00, 0x00, 0x00, 0x1c, 0x00, 0x00, 0x00, 0x08, 0x00, 0x00, 0x00,
  0x50, 0x00, 0x00, 0x00, 0x02, 0x00, 0x00, 0x00, 0xff, 0xff, 0xff, 0xff,
  0x08, 0x00, 0x00, 0x00, 0x68, 0xfd, 0xff, 0xff, 0x34, 0x00, 0x00, 0x00,
  0x73, 0x65, 0x71, 0x75, 0x65, 0x6e, 0x74, 0x69, 0x61, 0x6c, 0x2f, 0x64,
  0x65, 0x6e, 0x73, 0x65, 0x5f, 0x31, 0x2f, 0x4d, 0x61, 0x74, 0x4d, 0x75,
  0x6c, 0x3b, 0x73, 0x65, 0x71, 0x75, 0x65, 0x6e, 0x74, 0x69, 0x61, 0x6c,
  0x2f, 0x64, 0x65, 0x6e, 0x73, 0x65, 0x5f, 0x31, 0x2f, 0x42, 0x69, 0x61,
  0x73, 0x41, 0x64, 0x64, 0x00, 0x00, 0x00, 0x00, 0x02, 0x00, 0x00, 0x00,
  0x01, 0x00, 0x00, 0x00, 0x08, 0x00, 0x00, 0x00, 0xf2, 0xfd, 0xff, 0xff,
  0x00, 0x00, 0x00, 0x01, 0x14, 0x00, 0x00, 0x00, 0x1c, 0x00, 0x00, 0x00,
  0x1c, 0x00, 0x00, 0x00, 0x07, 0x00, 0x00, 0x00, 0x30, 0x00, 0x00, 0x00,
  0x02, 0x00, 0x00, 0x00, 0xff, 0xff, 0xff, 0xff, 0x20, 0x00, 0x00, 0x00,
  0xdc, 0xfd, 0xff, 0xff, 0x15, 0x00, 0x00, 0x00, 0x73, 0x65, 0x71, 0x75,
  0x65, 0x6e, 0x74, 0x69, 0x61, 0x6c, 0x2f, 0x64, 0x65, 0x6e, 0x73, 0x65,
  0x2f, 0x54, 0x61, 0x6e, 0x68, 0x00, 0x00, 0x00, 0x02, 0x00, 0x00, 0x00,
  0x01, 0x00, 0x00, 0x00, 0x20, 0x00, 0x00, 0x00, 0x46, 0xfe, 0xff, 0xff,
  0x00, 0x00, 0x00, 0x01, 0x14, 0x00, 0x00, 0x00, 0x1c, 0x00, 0x00, 0x00,
  0x1c, 0x00, 0x00, 0x00, 0x06, 0x00, 0x00, 0x00, 0x4c, 0x00, 0x00, 0x00,
  0x02, 0x00, 0x00, 0x00, 0xff, 0xff, 0xff, 0xff, 0x20, 0x00, 0x00, 0x00,
  0x30, 0xfe, 0xff, 0xff, 0x30, 0x00, 0x00, 0x00, 0x73, 0x65, 0x71, 0x75,
  0x65, 0x6e, 0x74, 0x69, 0x61, 0x6c, 0x2f, 0x64, 0x65, 0x6e, 0x73, 0x65,
  0x2f, 0x4d, 0x61, 0x74, 0x4d, 0x75, 0x6c, 0x3b, 0x73, 0x65, 0x71, 0x75,
  0x65, 0x6e, 0x74, 0x69, 0x61, 0x6c, 0x2f, 0x64, 0x65, 0x6e, 0x73, 0x65,
  0x2f, 0x42, 0x69, 0x61, 0x73, 0x41, 0x64, 0x64, 0x00, 0x00, 0x00, 0x00,
  0x02, 0x00, 0x00, 0x00, 0x01, 0x00, 0x00, 0x00, 0x20, 0x00, 0x00, 0x00,
  0x22, 0xff, 0xff, 0xff, 0x00, 0x00, 0x00, 0x01, 0x10, 0x00, 0x00, 0x00,
  0x10, 0x00, 0x00, 0x00, 0x05, 0x00, 0x00, 0x00, 0x28, 0x00, 0x00, 0x00,
  0x90, 0xfe, 0xff, 0xff, 0x19, 0x00, 0x00, 0x00, 0x73, 0x65, 0x71, 0x75,
  0x65, 0x6e, 0x74, 0x69, 0x61, 0x6c, 0x2f, 0x64, 0x65, 0x6e, 0x73, 0x65,
  0x5f, 0x31, 0x2f, 0x4d, 0x61, 0x74, 0x4d, 0x75, 0x6c, 0x00, 0x00, 0x00,
  0x02, 0x00, 0x00, 0x00, 0x08, 0x00, 0x00, 0x00, 0x20, 0x00, 0x00, 0x00,
  0x6a, 0xff, 0xff, 0xff, 0x00, 0x00, 0x00, 0x01, 0x10, 0x00, 0x00, 0x00,
  0x10, 0x00, 0x00, 0x00, 0x04, 0x00, 0x00, 0x00, 0x24, 0x00, 0x00, 0x00,
  0xd8, 0xfe, 0xff, 0xff, 0x17, 0x00, 0x00, 0x00, 0x73, 0x65, 0x71, 0x75,
  0x65, 0x6e, 0x74, 0x69, 0x61, 0x6c, 0x2f, 0x64, 0x65, 0x6e, 0x73, 0x65,
  0x2f, 0x4d, 0x61, 0x74, 0x4d, 0x75, 0x6c, 0x00, 0x02, 0x00, 0x00, 0x00,
  0x20, 0x00, 0x00, 0x00, 0x1d, 0x00, 0x00, 0x00, 0xae, 0xff, 0xff, 0xff,
  0x00, 0x00, 0x00, 0x01, 0x10, 0x00, 0x00, 0x00, 0x10, 0x00, 0x00, 0x00,
  0x03, 0x00, 0x00, 0x00, 0x34, 0x00, 0x00, 0x00, 0x1c, 0xff, 0xff, 0xff,
  0x27, 0x00, 0x00, 0x00, 0x73, 0x65, 0x71, 0x75, 0x65, 0x6e, 0x74, 0x69,
  0x61, 0x6c, 0x2f, 0x64, 0x65, 0x6e, 0x73, 0x65, 0x2f, 0x42, 0x69, 0x61,
  0x73, 0x41, 0x64, 0x64, 0x2f, 0x52, 0x65, 0x61, 0x64, 0x56, 0x61, 0x72,
  0x69, 0x61, 0x62, 0x6c, 0x65, 0x4f, 0x70, 0x00, 0x01, 0x00, 0x00, 0x00,
  0x20, 0x00, 0x00, 0x00, 0x00, 0x00, 0x16, 0x00, 0x18, 0x00, 0x14, 0x00,
  0x00, 0x00, 0x10, 0x00, 0x0c, 0x00, 0x08, 0x00, 0x00, 0x00, 0x00, 0x00,
  0x00, 0x00, 0x07, 0x00, 0x16, 0x00, 0x00, 0x00, 0x00, 0x00, 0x00, 0x01,
  0x10, 0x00, 0x00, 0x00, 0x10, 0x00, 0x00, 0x00, 0x02, 0x00, 0x00, 0x00,
  0x38, 0x00, 0x00, 0x00, 0x84, 0xff, 0xff, 0xff, 0x29, 0x00, 0x00, 0x00,
  0x73, 0x65, 0x71, 0x75, 0x65, 0x6e, 0x74, 0x69, 0x61, 0x6c, 0x2f, 0x64,
  0x65, 0x6e, 0x73, 0x65, 0x5f, 0x31, 0x2f, 0x42, 0x69, 0x61, 0x73, 0x41,
  0x64, 0x64, 0x2f, 0x52, 0x65, 0x61, 0x64, 0x56, 0x61, 0x72, 0x69, 0x61,
  0x62, 0x6c, 0x65, 0x4f, 0x70, 0x00, 0x00, 0x00, 0x01, 0x00, 0x00, 0x00,
  0x08, 0x00, 0x00, 0x00, 0x00, 0x00, 0x16, 0x00, 0x1c, 0x00, 0x18, 0x00,
  0x00, 0x00, 0x14, 0x00, 0x10, 0x00, 0x0c, 0x00, 0x00, 0x00, 0x00, 0x00,
  0x08, 0x00, 0x07, 0x00, 0x16, 0x00, 0x00, 0x00, 0x00, 0x00, 0x00, 0x01,
  0x14, 0x00, 0x00, 0x00, 0x20, 0x00, 0x00, 0x00, 0x20, 0x00, 0x00, 0x00,
  0x01, 0x00, 0x00, 0x00, 0x3c, 0x00, 0x00, 0x00, 0x02, 0x00, 0x00, 0x00,
  0xff, 0xff, 0xff, 0xff, 0x1d, 0x00, 0x00, 0x00, 0x04, 0x00, 0x04, 0x00,
  0x04, 0x00, 0x00, 0x00, 0x1d, 0x00, 0x00, 0x00, 0x73, 0x65, 0x72, 0x76,
  0x69, 0x6e, 0x67, 0x5f, 0x64, 0x65, 0x66, 0x61, 0x75, 0x6c, 0x74, 0x5f,
  0x64, 0x65, 0x6e, 0x73, 0x65, 0x5f, 0x69, 0x6e, 0x70, 0x75, 0x74, 0x3a,
  0x30, 0x00, 0x00, 0x00, 0x02, 0x00, 0x00, 0x00, 0x01, 0x00, 0x00, 0x00,
  0x1d, 0x00, 0x00, 0x00, 0x03, 0x00, 0x00, 0x00, 0x30, 0x00, 0x00, 0x00,
  0x14, 0x00, 0x00, 0x00, 0x04, 0x00, 0x00, 0x00, 0xe8, 0xff, 0xff, 0xff,
  0x19, 0x00, 0x00, 0x00, 0x00, 0x00, 0x00, 0x19, 0xf4, 0xff, 0xff, 0xff,
  0x1c, 0x00, 0x00, 0x00, 0x00, 0x00, 0x00, 0x1c, 0x0c, 0x00, 0x0c, 0x00,
  0x0b, 0x00, 0x00, 0x00, 0x00, 0x00, 0x04, 0x00, 0x0c, 0x00, 0x00, 0x00,
  0x09, 0x00, 0x00, 0x00, 0x00, 0x00, 0x00, 0x09
};
unsigned int very_tiny_tflite_len = 6704;
